{
  "version": "1.0",
  "truncation": null,
  "padding": null,
  "added_tokens": [
    {
      "id": 0,
      "content": "[PAD]",
      "single_word": false,
      "lstrip": false,
      "rstrip": false,
      "normalized": false,
      "special": true
    },
    {
      "id": 1,
      "content": "[UNK]",
      "single_word": false,
      "lstrip": false,
      "rstrip": false,
      "normalized": false,
      "special": true
    },
    {
      "id": 2,
      "content": "[CLS]",
      "single_word": false,
      "lstrip": false,
      "rstrip": false,
      "normalized": false,
      "special": true
    },
    {
      "id": 3,
      "content": "[SEP]",
      "single_word": false,
      "lstrip": false,
      "rstrip": false,
      "normalized": false,
      "special": true
    },
    {
      "id": 4,
      "content": "[MASK]",
      "single_word": false,
      "lstrip": false,
      "rstrip": false,
      "normalized": false,
      "special": true
    }
  ],
  "normalizer": null,
  "pre_tokenizer": {
    "type": "ByteLevel",
    "add_prefix_space": true,
    "trim_offsets": true,
    "use_regex": true
  },
  "post_processor": {
    "type": "ByteLevel",
    "add_prefix_space": true,
    "trim_offsets": true,
    "use_regex": true
  },
  "decoder": {
    "type": "ByteLevel",
    "add_prefix_space": true,
    "trim_offsets": true,
    "use_regex": true
  },
  "model": {
    "type": "BPE",
    "dropout": null,
    "unk_token": "[UNK]",
    "continuing_subword_prefix": null,
    "end_of_word_suffix": null,
    "fuse_unk": false,
    "byte_fallback": false,
    "ignore_merges": false,
    "vocab": {
      "[PAD]": 0,
      "[UNK]": 1,
      "[CLS]": 2,
      "[SEP]": 3,
      "[MASK]": 4,
      "!": 5,
      "\"": 6,
      "#": 7,
      "$": 8,
      "%": 9,
      "&": 10,
      "'": 11,
      "(": 12,
      ")": 13,
      "*": 14,
      "+": 15,
      ",": 16,
      "-": 17,
      ".": 18,
      "/": 19,
      "0": 20,
      "1": 21,
      "2": 22,
      "3": 23,
      "4": 24,
      "5": 25,
      "6": 26,
      "7": 27,
      "8": 28,
      "9": 29,
      ":": 30,
      ";": 31,
      "<": 32,
      "=": 33,
      ">": 34,
      "?": 35,
      "@": 36,
      "A": 37,
      "B": 38,
      "C": 39,
      "D": 40,
      "E": 41,
      "F": 42,
      "G": 43,
      "H": 44,
      "I": 45,
      "J": 46,
      "K": 47,
      "L": 48,
      "M": 49,
      "N": 50,
      "O": 51,
      "P": 52,
      "Q": 53,
      "R": 54,
      "S": 55,
      "T": 56,
      "U": 57,
      "V": 58,
      "W": 59,
      "X": 60,
      "Y": 61,
      "Z": 62,
      "[": 63,
      "\\": 64,
      "]": 65,
      "^": 66,
      "_": 67,
      "`": 68,
      "a": 69,
      "b": 70,
      "c": 71,
      "d": 72,
      "e": 73,
      "f": 74,
      "g": 75,
      "h": 76,
      "i": 77,
      "j": 78,
      "k": 79,
      "l": 80,
      "m": 81,
      "n": 82,
      "o": 83,
      "p": 84,
      "q": 85,
      "r": 86,
      "s": 87,
      "t": 88,
      "u": 89,
      "v": 90,
      "w": 91,
      "x": 92,
      "y": 93,
      "z": 94,
      "{": 95,
      "|": 96,
      "}": 97,
      "~": 98,
      "¡": 99,
      "¢": 100,
      "£": 101,
      "¤": 102,
      "¥": 103,
      "¦": 104,
      "§": 105,
      "¨": 106,
      "©": 107,
      "ª": 108,
      "«": 109,
      "¬": 110,
      "®": 111,
      "¯": 112,
      "°": 113,
      "±": 114,
      "²": 115,
      "³": 116,
      "´": 117,
      "µ": 118,
      "¶": 119,
      "·": 120,
      "¸": 121,
      "¹": 122,
      "º": 123,
      "»": 124,
      "¼": 125,
      "½": 126,
      "¾": 127,
      "¿": 128,
      "Â": 129,
      "Ã": 130,
      "Ä": 131,
      "Å": 132,
      "Æ": 133,
      "Ç": 134,
      "È": 135,
      "É": 136,
      "Ê": 137,
      "Ë": 138,
      "Ì": 139,
      "Î": 140,
      "Ï": 141,
      "Ð": 142,
      "Ñ": 143,
      "Ò": 144,
      "Ó": 145,
      "Ô": 146,
      "Õ": 147,
      "Ö": 148,
      "×": 149,
      "Ø": 150,
      "Ù": 151,
      "Ú": 152,
      "Û": 153,
      "Ü": 154,
      "à": 155,
      "á": 156,
      "â": 157,
      "ã": 158,
      "ä": 159,
      "å": 160,
      "æ": 161,
      "ç": 162,
      "è": 163,
      "é": 164,
      "ê": 165,
      "ì": 166,
      "í": 167,
      "ï": 168,
      "ð": 169,
      "Ċ": 170,
      "Ġ": 171,
      "Ģ": 172,
      "ģ": 173,
      "Ĥ": 174,
      "ĥ": 175,
      "Ħ": 176,
      "ħ": 177,
      "Ĩ": 178,
      "ĩ": 179,
      "Ī": 180,
      "ī": 181,
      "Ĭ": 182,
      "ĭ": 183,
      "Į": 184,
      "į": 185,
      "İ": 186,
      "ı": 187,
      "Ĳ": 188,
      "ĳ": 189,
      "Ĵ": 190,
      "ĵ": 191,
      "Ķ": 192,
      "ķ": 193,
      "ĸ": 194,
      "Ĺ": 195,
      "ĺ": 196,
      "Ļ": 197,
      "ļ": 198,
      "Ľ": 199,
      "ľ": 200,
      "Ŀ": 201,
      "ŀ": 202,
      "Ł": 203,
      "ł": 204,
      "Ń": 205,
      "Ġt": 206,
      "Ġa": 207,
      "he": 208,
      "in": 209,
      "er": 210,
      "on": 211,
      "Ġthe": 212,
      "re": 213,
      "Ġo": 214,
      "an": 215,
      "at": 216,
      "en": 217,
      "is": 218,
      "Ġs": 219,
      "ed": 220,
      "es": 221,
      "or": 222,
      "al": 223,
      "Ġof": 224,
      "it": 225,
      "Ġan": 226,
      "Ġc": 227,
      "Ġw": 228,
      "ar": 229,
      "ic": 230,
      "Ġin": 231,
      "Ġp": 232,
      "Ġf": 233,
      "Ġb": 234,
      "Ġand": 235,
      "ĠA": 236,
      "ion": 237,
      "ro": 238,
      "ing": 239,
      "as": 240,
      "Ġm": 241,
      "le": 242,
      "Ġto": 243,
      "Ġd": 244,
      "us": 245,
      "Ġh": 246,
      "ent": 247,
      "om": 248,
      "ur": 249,
      "ct": 250,
      "il": 251,
      "el": 252,
      "Ġre": 253,
      "ol": 254,
      "ĠT": 255,
      "Ġe": 256,
      "un": 257,
      "Ġ1": 258,
      "Ġl": 259,
      "Ġth": 260,
      "Ġ(": 261,
      "ĠS": 262,
      "Ġn": 263,
      "st": 264,
      "ut": 265,
      "ĠC": 266,
      ".\\": 267,
      "et": 268,
      "am": 269,
      "ch": 270,
      "id": 271,
      "im": 272,
      "ly": 273,
      "ation": 274,
      "ce": 275,
      "ul": 276,
      "Ġis": 277,
      "ad": 278,
      "iv": 279,
      "ot": 280,
      "\\\"": 281,
      "Ġas": 282,
      "ĠM": 283,
      "ist": 284,
      "ig": 285,
      "Ġbe": 286,
      "Ġfor": 287,
      "ĠI": 288,
      "ir": 289,
      "Ġg": 290,
      "ĠB": 291,
      "ra": 292,
      "âĢ": 293,
      "ĠP": 294,
      "ers": 295,
      "Ġon": 296,
      "ith": 297,
      "her": 298,
      "ĠThe": 299,
      "Ġal": 300,
      "Ġwas": 301,
      "ow": 302,
      "em": 303,
      "os": 304,
      "ian": 305,
      "âĢĵ": 306,
      "ĠH": 307,
      "Ġst": 308,
      "Ġ19": 309,
      "ter": 310,
      "um": 311,
      "Ġcon": 312,
      "Ġwith": 313,
      "Ġby": 314,
      "ay": 315,
      "Ġthat": 316,
      "ĠE": 317,
      "th": 318,
      "ĠG": 319,
      "ver": 320,
      "Ġwh": 321,
      "op": 322,
      "Ġpro": 323,
      "and": 324,
      "od": 325,
      "20": 326,
      "ĠR": 327,
      "ĠL": 328,
      "ĠD": 329,
      "ĠâĢĵ": 330,
      "Ġor": 331,
      "ies": 332,
      "ag": 333,
      "'s": 334,
      "ĠF": 335,
      "if": 336,
      "av": 337,
      "ia": 338,
      "Ġde": 339,
      "est": 340,
      "Ġv": 341,
      "rom": 342,
      "Ġcom": 343,
      "res": 344,
      "Ġ\\\"": 345,
      "ĠW": 346,
      "ĠN": 347,
      "Ġat": 348,
      "ab": 349,
      "Ġare": 350,
      "Ġit": 351,
      "ain": 352,
      "ac": 353,
      "Ġsu": 354,
      "pe": 355,
      "ate": 356,
      "Ġex": 357,
      "ity": 358,
      "ud": 359,
      "Ġfrom": 360,
      "ri": 361,
      "oun": 362,
      "Ġhe": 363,
      "ug": 364,
      "ĠJ": 365,
      ")\\": 366,
      "ical": 367,
      "oc": 368,
      "qu": 369,
      "ich": 370,
      "Ġhis": 371,
      "ess": 372,
      "og": 373,
      "all": 374,
      "Ġ20": 375,
      "ant": 376,
      "ort": 377,
      "Ġr": 378,
      "ĠIn": 379,
      "pp": 380,
      "mer": 381,
      "19": 382,
      "ill": 383,
      "Ġmo": 384,
      "ated": 385,
      "ber": 386,
      "Ġse": 387,
      "ial": 388,
      "ĠO": 389,
      "art": 390,
      "pt": 391,
      "ish": 392,
      "se": 393,
      "Ġ\\": 394,
      "ew": 395,
      "ive": 396,
      "ment": 397,
      "ure": 398,
      "nA": 399,
      "Ġun": 400,
      "igh": 401,
      "ous": 402,
      "Ġus": 403,
      "ction": 404,
      "ard": 405,
      "Ġwhich": 406,
      "ip": 407,
      "ĠU": 408,
      "ak": 409,
      "Ġch": 410,
      "our": 411,
      "ine": 412,
      "ican": 413,
      "ĠK": 414,
      "rit": 415,
      "ĠAl": 416,
      "ere": 417,
      "ust": 418,
      "ĠAn": 419,
      "end": 420,
      "ave": 421,
      "ell": 422,
      "ary": 423,
      "ther": 424,
      "ugh": 425,
      "Ġnot": 426,
      "cl": 427,
      "nT": 428,
      "ĠĠ": 429,
      "Ġpl": 430,
      "ong": 431,
      "),": 432,
      "per": 433,
      "out": 434,
      "ran": 435,
      "Ġar": 436,
      "Ġac": 437,
      "Ġcomp": 438,
      "Ġwere": 439,
      "Ġle": 440,
      "ph": 441,
      "ast": 442,
      "ge": 443,
      "du": 444,
      "so": 445,
      "Ġwor": 446,
      "ect": 447,
      "der": 448,
      "up": 449,
      "ult": 450,
      "00": 451,
      "ub": 452,
      "Ġab": 453,
      "ĠCh": 454,
      "ear": 455,
      "Ġk": 456,
      "ĠAmer": 457,
      "ov": 458,
      "ire": 459,
      "iz": 460,
      "Ġhave": 461,
      "ome": 462,
      "ame": 463,
      "ition": 464,
      "ence": 465,
      "ĠSt": 466,
      "ide": 467,
      "Ġalso": 468,
      "ik": 469,
      "ap": 470,
      "ore": 471,
      "ight": 472,
      "nThe": 473,
      "hen": 474,
      "ass": 475,
      "ry": 476,
      "Ġ\"": 477,
      "Ġcont": 478,
      "Ġsh": 479,
      "Ġint": 480,
      "ĠAr": 481,
      "ory": 482,
      "fer": 483,
      "ations": 484,
      "ie": 485,
      "ĠAmerican": 486,
      "Ġhas": 487,
      "ok": 488,
      "erm": 489,
      "oul": 490,
      "ĠV": 491,
      "ib": 492,
      "Ġad": 493,
      "ren": 494,
      "ign": 495,
      "age": 496,
      "Ġy": 497,
      "ree": 498,
      "ates": 499,
      "ater": 500,
      "Ġits": 501,
      "Ġbut": 502,
      "Ġhad": 503,
      "irst": 504,
      "pl": 505,
      "ally": 506,
      "tern": 507,
      "Ġ18": 508,
      "ld": 509,
      "ord": 510,
      "ff": 511,
      "ism": 512,
      "act": 513,
      "Ġother": 514,
      "ang": 515,
      "oll": 516,
      "Ġtheir": 517,
      "ace": 518,
      "ould": 519,
      "ces": 520,
      "Ġall": 521,
      "Ġcl": 522,
      "hed": 523,
      "Ġman": 524,
      "ely": 525,
      "ĠTh": 526,
      "ount": 527,
      "ue": 528,
      "Ġres": 529,
      "ĠUn": 530,
      "olog": 531,
      "Ġim": 532,
      "Ġen": 533,
      "Ġfirst": 534,
      "clud": 535,
      "Ġthis": 536,
      "Ġ2": 537,
      "ions": 538,
      "Ġpart": 539,
      "ound": 540,
      "ks": 541,
      "nI": 542,
      "gl": 543,
      "ost": 544,
      "Ġcan": 545,
      "con": 546,
      "Ġdis": 547,
      "Ġ201": 548,
      "te": 549,
      "Ġsp": 550,
      "Ġbec": 551,
      "red": 552,
      "ron": 553,
      "over": 554,
      "ime": 555,
      "Ġone": 556,
      "ress": 557,
      "Ġbeen": 558,
      "ach": 559,
      "ts": 560,
      "ru": 561,
      "fter": 562,
      "own": 563,
      "Ġne": 564,
      "Ġam": 565,
      "Ġinclud": 566,
      "ric": 567,
      "able": 568,
      "ens": 569,
      "Ġper": 570,
      "ep": 571,
      "Ġsc": 572,
      "ile": 573,
      "und": 574,
      "cc": 575,
      "Ġsy": 576,
      "orm": 577,
      "Ġwho": 578,
      "Ġform": 579,
      "ced": 580,
      "nIn": 581,
      "Ġcomm": 582,
      "ice": 583,
      "ubl": 584,
      "erv": 585,
      "ĠEn": 586,
      "uring": 587,
      "Ġro": 588,
      "Ġused": 589,
      "Ġsuch": 590,
      "ath": 591,
      "ĠIt": 592,
      "ĠHe": 593,
      "vel": 594,
      "Ġph": 595,
      "ough": 596,
      "ational": 597,
      "Ġspe": 598,
      "wo": 599,
      "Ġte": 600,
      "Ġag": 601,
      "ited": 602,
      "Ġcent": 603,
      "Ġprodu": 604,
      "ĠAs": 605,
      "we": 606,
      "ied": 607,
      "ents": 608,
      "Ġcons": 609,
      "Ġdes": 610,
      "als": 611,
      "Ġmost": 612,
      "ose": 613,
      "lect": 614,
      "Ġmore": 615,
      "Ġyear": 616,
      "Ġpol": 617,
      "Ġev": 618,
      "aus": 619,
      "port": 620,
      "ack": 621,
      "ys": 622,
      "Âł": 623,
      "ors": 624,
      "Ġact": 625,
      "Ġj": 626,
      "Ġ200": 627,
      "Ġrel": 628,
      "ite": 629,
      "aw": 630,
      "ics": 631,
      "les": 632,
      "ium": 633,
      "Ġme": 634,
      "Ġ3": 635,
      "ob": 636,
      "Ġthey": 637,
      ").": 638,
      "ance": 639,
      "ious": 640,
      "reat": 641,
      "Ġpre": 642,
      "ury": 643,
      "\":": 644,
      "Ġthan": 645,
      "ase": 646,
      "Ġgro": 647,
      "Ġinto": 648,
      "Ġind": 649,
      "Ġplay": 650,
      "ener": 651,
      "Ġrec": 652,
      "amp": 653,
      "ade": 654,
      "ular": 655,
      "Ġtwo": 656,
      "nS": 657,
      "rib": 658,
      "ral": 659,
      "ans": 660,
      "Ġapp": 661,
      "ted": 662,
      "ne": 663,
      "here": 664,
      "ark": 665,
      "ĠAt": 666,
      "old": 667,
      "one": 668,
      "Ġbet": 669,
      "Ġass": 670,
      "Ġsub": 671,
      "iss": 672,
      "Ġafter": 673,
      "ĠEngl": 674,
      "ons": 675,
      "18": 676,
      "Ġsome": 677,
      "Ġpr": 678,
      "ings": 679,
      "Ġkn": 680,
      "Ġpe": 681,
      "rough": 682,
      "ific": 683,
      "Ġmet": 684,
      "land": 685,
      "Ġnum": 686,
      "rans": 687,
      "Ġmod": 688,
      "iet": 689,
      "Ġpo": 690,
      "Ġaut": 691,
      "Ġhim": 692,
      "uc": 693,
      "ook": 694,
      "ten": 695,
      "hes": 696,
      "Ġover": 697,
      "ual": 698,
      "ind": 699,
      "Ġreg": 700,
      "Ġacc": 701,
      "ists": 702,
      "Ġatt": 703,
      "Ġwould": 704,
      "Ġlar": 705,
      "Ġ199": 706,
      "Ġtr": 707,
      "are": 708,
      "oth": 709,
      "Ġra": 710,
      "ict": 711,
      "ood": 712,
      "Ġher": 713,
      "ween": 714,
      "Ġso": 715,
      "ient": 716,
      "ond": 717,
      "ars": 718,
      "ram": 719,
      "ivers": 720,
      "Ġtime": 721,
      "\",": 722,
      "Ġout": 723,
      "Ġonly": 724,
      "orn": 725,
      "angu": 726,
      "Ġear": 727,
      "ople": 728,
      "ities": 729,
      "ĠThis": 730,
      "ild": 731,
      "wn": 732,
      "ased": 733,
      "Ġmany": 734,
      "ern": 735,
      "ail": 736,
      "Ġem": 737,
      "Ġbetween": 738,
      "Ġdo": 739,
      "ĠSe": 740,
      "oh": 741,
      "Ġdef": 742,
      "gan": 743,
      "Ġunder": 744,
      "Ġwrit": 745,
      "Ġco": 746,
      "Ġfound": 747,
      "ton": 748,
      "ve": 749,
      "Ġmay": 750,
      "stem": 751,
      "ĠAp": 752,
      "Ġqu": 753,
      "uro": 754,
      "erman": 755,
      "Ġspec": 756,
      "ject": 757,
      "urn": 758,
      "form": 759,
      "cre": 760,
      "ative": 761,
      "Ġdif": 762,
      "Ġwhen": 763,
      "Ġthere": 764,
      "Ġwork": 765,
      "ĠAm": 766,
      "Ġ198": 767,
      "hem": 768,
      "ĠY": 769,
      "nC": 770,
      "ever": 771,
      "Ġup": 772,
      "xt": 773,
      "ines": 774,
      "ward": 775,
      "Ġpubl": 776,
      "ince": 777,
      "ution": 778,
      "Ġinter": 779,
      "ology": 780,
      "Ġ4": 781,
      "Ġ197": 782,
      "ished": 783,
      "Ġcount": 784,
      "arch": 785,
      "ily": 786,
      "Ġabout": 787,
      "ĠEnglish": 788,
      "ilm": 789,
      "Ġvar": 790,
      "Ġob": 791,
      "Ġpolit": 792,
      "ft": 793,
      "oy": 794,
      "ural": 795,
      "ax": 796,
      "Ġwe": 797,
      "Ġfl": 798,
      "ins": 799,
      "ah": 800,
      "nE": 801,
      "Ġtrans": 802,
      "Ġwhere": 803,
      "ician": 804,
      "very": 805,
      "Ġthrough": 806,
      "Ġthem": 807,
      "ae": 808,
      "Ġcall": 809,
      "Ġpos": 810,
      "Ġuse": 811,
      "ife": 812,
      "ower": 813,
      "Ġgener": 814,
      "ating": 815,
      "ball": 816,
      "Ġknown": 817,
      "ier": 818,
      "Ġyears": 819,
      "Ġ196": 820,
      "nP": 821,
      "Ġlangu": 822,
      "Ġrem": 823,
      "ause": 824,
      "velop": 825,
      "ved": 826,
      "Ġsystem": 827,
      "ures": 828,
      "\\\",": 829,
      "Ġnew": 830,
      "Ġpres": 831,
      "ĠWar": 832,
      "overn": 833,
      "Ġchar": 834,
      "ĠCon": 835,
      "Ġinv": 836,
      "ius": 837,
      "rop": 838,
      "Ġduring": 839,
      "ider": 840,
      "Ġhist": 841,
      "ĠAust": 842,
      "Ġ5": 843,
      "Ġoff": 844,
      "ĠRe": 845,
      "Ġpop": 846,
      "bert": 847,
      "ll": 848,
      "rist": 849,
      "Ġset": 850,
      "ident": 851,
      "ĠNew": 852,
      "ĠDe": 853,
      "ollow": 854,
      "ake": 855,
      "inal": 856,
      "io": 857,
      "ĠSp": 858,
      "Ġcol": 859,
      "outh": 860,
      "uch": 861,
      "ized": 862,
      "Ġart": 863,
      "fl": 864,
      "ock": 865,
      "Ġthese": 866,
      "ays": 867,
      "Ġ17": 868,
      "ert": 869,
      "Ġpeople": 870,
      "cess": 871,
      "cept": 872,
      "Ġdire": 873,
      "gy": 874,
      "oot": 875,
      "fore": 876,
      "ĠArm": 877,
      "Ġcentury": 878,
      "int": 879,
      "Ġap": 880,
      "Ġno": 881,
      "wik": 882,
      "owever": 883,
      "tle": 884,
      "ature": 885,
      "orth": 886,
      "ically": 887,
      "Ġsur": 888,
      "ĠAg": 889,
      "oman": 890,
      "Ġinst": 891,
      "Ġworld": 892,
      "the": 893,
      "nM": 894,
      "lex": 895,
      "ments": 896,
      "Ġext": 897,
      "ike": 898,
      "inc": 899,
      "Ġauth": 900,
      "Ġdist": 901,
      "ĠGerman": 902,
      "Ġdevelop": 903,
      "Ġprov": 904,
      "Ġtra": 905,
      "Ġfilm": 906,
      "ĠGree": 907,
      "ather": 908,
      "ĠCom": 909,
      "Ġelect": 910,
      "ise": 911,
      "ages": 912,
      "ĠInd": 913,
      "Ġnumber": 914,
      "gest": 915,
      "raph": 916,
      "Ġsupp": 917,
      "edia": 918,
      "ually": 919,
      "ctions": 920,
      "other": 921,
      "ger": 922,
      "ĠUnited": 923,
      "hip": 924,
      "ined": 925,
      "Ġwell": 926,
      "man": 927,
      "Ġbel": 928,
      "Ġstud": 929,
      "tt": 930,
      "ians": 931,
      ".\\\"": 932,
      "emb": 933,
      "Ġdiffer": 934,
      "cent": 935,
      "elf": 936,
      "Ġfollow": 937,
      "ĠAb": 938,
      "uss": 939,
      "Ġlater": 940,
      "Ġbeing": 941,
      "Ġcalled": 942,
      "Ġexp": 943,
      "Ġgroup": 944,
      "Ġrep": 945,
      "Ġest": 946,
      "Ġfam": 947,
      "Ġimp": 948,
      "Ġwhile": 949,
      "Ġsing": 950,
      "Ġcar": 951,
      "000": 952,
      "nF": 953,
      "oph": 954,
      "ĠStates": 955,
      "aj": 956,
      "Ġeff": 957,
      "ai": 958,
      "Ġstate": 959,
      "round": 960,
      "ract": 961,
      "Ġsign": 962,
      "nR": 963,
      "Ġant": 964,
      "zer": 965,
      "\\\".": 966,
      "ĠZ": 967,
      "cond": 968,
      "yp": 969,
      "Ġend": 970,
      "ement": 971,
      ":\\": 972,
      "ences": 973,
      "ĠAd": 974,
      "ible": 975,
      "Ġsim": 976,
      "ĠLe": 977,
      "az": 978,
      "imes": 979,
      "Ġbecame": 980,
      "ley": 981,
      "Ġincluding": 982,
      "Ġhigh": 983,
      "Ġ194": 984,
      "iel": 985,
      "Ġele": 986,
      "iew": 987,
      "ĠIs": 988,
      "cy": 989,
      "Ġsm": 990,
      "atic": 991,
      "ix": 992,
      "Ġed": 993,
      "Ġterm": 994,
      "Ġmade": 995,
      "Ġdirect": 996,
      "erson": 997,
      "ey": 998,
      "Ġent": 999,
      "Ġfe": 1000,
      "Ġloc": 1001,
      "Ġcre": 1002,
      "Ġthen": 1003,
      "ember": 1004,
      "Ġbu": 1005,
      "ty": 1006,
      "ĠAf": 1007,
      "Ġdec": 1008,
      "ived": 1009,
      "Ġany": 1010,
      "Ġauthor": 1011,
      "Ġcity": 1012,
      "Ġagain": 1013,
      "Ġgovern": 1014,
      "Ġthree": 1015,
      "ĠChrist": 1016,
      "Ġserv": 1017,
      "ĠBrit": 1018,
      "any": 1019,
      "ros": 1020,
      "rench": 1021,
      "Ġplayer": 1022,
      "Ġboth": 1023,
      "ially": 1024,
      "enn": 1025,
      "ĠJoh": 1026,
      "ick": 1027,
      "ster": 1028,
      "urope": 1029,
      "Ġ6": 1030,
      "Ġadd": 1031,
      "Ġpartic": 1032,
      "ility": 1033,
      "ina": 1034,
      "Ġ193": 1035,
      "its": 1036,
      "Ã©": 1037,
      "ĠSh": 1038,
      "ale": 1039,
      "yd": 1040,
      "ĠMar": 1041,
      "Ġfoot": 1042,
      "chn": 1043,
      "Ġmat": 1044,
      "Ġappe": 1045,
      "nB": 1046,
      "Ġorig": 1047,
      "ĠFor": 1048,
      "ute": 1049,
      "nO": 1050,
      "inu": 1051,
      "Ġmon": 1052,
      "yl": 1053,
      ").\\": 1054,
      "Ġ195": 1055,
      "Ġresult": 1056,
      "ann": 1057,
      "Ġconst": 1058,
      "Ġmain": 1059,
      "Ġret": 1060,
      "Ġwar": 1061,
      "Ġname": 1062,
      "ample": 1063,
      "ense": 1064,
      "Ġearly": 1065,
      "Ġshe": 1066,
      "pect": 1067,
      "ec": 1068,
      "ulation": 1069,
      "âĢĶ": 1070,
      "ording": 1071,
      "Ġdesc": 1072,
      "iod": 1073,
      "ĠSc": 1074,
      "ants": 1075,
      "nD": 1076,
      "Ġsever": 1077,
      "Ġcould": 1078,
      "els": 1079,
      "ĠPro": 1080,
      "Ġoften": 1081,
      "nH": 1082,
      "ides": 1083,
      "ruct": 1084,
      "ains": 1085,
      "iversity": 1086,
      "ful": 1087,
      "Ġdisc": 1088,
      "Ġconsider": 1089,
      "16": 1090,
      "ital": 1091,
      "Ġdep": 1092,
      "ĠJohn": 1093,
      "Ġ7": 1094,
      "Ġocc": 1095,
      "conom": 1096,
      "ĠFran": 1097,
      "Ġser": 1098,
      "Ġlong": 1099,
      "ork": 1100,
      "Ġbl": 1101,
      "ene": 1102,
      "though": 1103,
      "aur": 1104,
      "rian": 1105,
      "inist": 1106,
      "ĠFrench": 1107,
      "ograph": 1108,
      "ollo": 1109,
      "Ġcharact": 1110,
      "osed": 1111,
      "ilos": 1112,
      "ained": 1113,
      "ĠEurope": 1114,
      "25": 1115,
      "Ġsch": 1116,
      "ool": 1117,
      "Ġhum": 1118,
      "iver": 1119,
      "ash": 1120,
      "lic": 1121,
      "17": 1122,
      "ives": 1123,
      "illion": 1124,
      "Ġmus": 1125,
      "ield": 1126,
      "til": 1127,
      "led": 1128,
      "air": 1129,
      "ues": 1130,
      "Ġref": 1131,
      "ision": 1132,
      "Ġfootball": 1133,
      "Ġlead": 1134,
      "Ġcommon": 1135,
      "Ġsame": 1136,
      "Ġbecause": 1137,
      "Ġsmall": 1138,
      "ander": 1139,
      "ĠAustral": 1140,
      "ĠEm": 1141,
      "ica": 1142,
      "ames": 1143,
      "omet": 1144,
      "ids": 1145,
      "ĠPh": 1146,
      "mon": 1147,
      "15": 1148,
      "ajor": 1149,
      "vent": 1150,
      "urch": 1151,
      "Ġdeath": 1152,
      "yn": 1153,
      "adem": 1154,
      "ript": 1155,
      "ble": 1156,
      "Ġprog": 1157,
      "iety": 1158,
      "hern": 1159,
      "Ġown": 1160,
      "iam": 1161,
      "Ġrev": 1162,
      "ĠAnd": 1163,
      "ange": 1164,
      "ĠCan": 1165,
      "ared": 1166,
      "Ġ8": 1167,
      "Ġsl": 1168,
      "ilit": 1169,
      "Ġbefore": 1170,
      "aid": 1171,
      "ĠGreek": 1172,
      "Ġexample": 1173,
      "ps": 1174,
      "iqu": 1175,
      "Ġsecond": 1176,
      "Ġsoc": 1177,
      "nN": 1178,
      "Ġpolitician": 1179,
      "ipedia": 1180,
      "org": 1181,
      "ively": 1182,
      "orld": 1183,
      "rab": 1184,
      "Ġwill": 1185,
      "ugust": 1186,
      "wikipedia": 1187,
      "Ġstr": 1188,
      "Ġincre": 1189,
      "Ġdifferent": 1190,
      "ex": 1191,
      "ĠOr": 1192,
      "Ġcult": 1193,
      "ou": 1194,
      "ĠCl": 1195,
      "apt": 1196,
      "aking": 1197,
      "Ġlanguage": 1198,
      "Ġeach": 1199,
      "nL": 1200,
      "ox": 1201,
      "ience": 1202,
      "Ġlaw": 1203,
      "Ġ16": 1204,
      "Ġland": 1205,
      "ck": 1206,
      "inn": 1207,
      "rent": 1208,
      "Ġseveral": 1209,
      "Ġword": 1210,
      "Ġ192": 1211,
      "Ġdet": 1212,
      "ternational": 1213,
      "anes": 1214,
      "Ġ15": 1215,
      "SA": 1216,
      "Ġfour": 1217,
      "Ġequ": 1218,
      "jan": 1219,
      "Ġins": 1220,
      "Ġlife": 1221,
      "ĠRoman": 1222,
      "Ġtrad": 1223,
      "Ġthough": 1224,
      "Ġanim": 1225,
      "row": 1226,
      "ke": 1227,
      "ator": 1228,
      "gen": 1229,
      "ched": 1230,
      "Ġagainst": 1231,
      "ĠApollo": 1232,
      "Ġsol": 1233,
      "Ġbook": 1234,
      "ization": 1235,
      "Ġeffect": 1236,
      "ĠBritish": 1237,
      "iation": 1238,
      "par": 1239,
      "Ġinclude": 1240,
      "Ġval": 1241,
      "ĠOn": 1242,
      "Ġimport": 1243,
      "ged": 1244,
      "ised": 1245,
      "ting": 1246,
      "Ġ10": 1247,
      "ccess": 1248,
      "nW": 1249,
      "Ġmajor": 1250,
      "eg": 1251,
      "Ġlarge": 1252,
      "ĠSch": 1253,
      "Ġif": 1254,
      "han": 1255,
      "writ": 1256,
      "cur": 1257,
      "ries": 1258,
      "resent": 1259,
      "ĠUniversity": 1260,
      "itions": 1261,
      "Ġthose": 1262,
      "ional": 1263,
      "iter": 1264,
      "abl": 1265,
      "ĠII": 1266,
      "Ġ,": 1267,
      "Ġdesign": 1268,
      "Ġcountry": 1269,
      "Ġeconom": 1270,
      "cer": 1271,
      "Ġsince": 1272,
      "Ġbro": 1273,
      "Ġuntil": 1274,
      "Ġclass": 1275,
      "Ġperson": 1276,
      "Ġexpl": 1277,
      "Ġperiod": 1278,
      "10": 1279,
      "Ġinfl": 1280,
      "Ġmodern": 1281,
      "Ġtechn": 1282,
      "Ġgovernment": 1283,
      "nAn": 1284,
      "ided": 1285,
      "ified": 1286,
      "ource": 1287,
      "ank": 1288,
      "Ġcommun": 1289,
      "Ġcor": 1290,
      "ĠSouth": 1291,
      "Ġexper": 1292,
      "ull": 1293,
      "Ġcontro": 1294,
      "ĠAlex": 1295,
      "ĠAugust": 1296,
      "ĠHowever": 1297,
      "Ġbelie": 1298,
      "ms": 1299,
      "Ġmin": 1300,
      "ival": 1301,
      "Ġamong": 1302,
      "ĠCar": 1303,
      "Ġleg": 1304,
      "Ġnear": 1305,
      "Ġposs": 1306,
      "Ġrefer": 1307,
      "med": 1308,
      "ĠWorld": 1309,
      "Ġprogram": 1310,
      "Ġphilos": 1311,
      "ott": 1312,
      "04": 1313,
      "Ġ9": 1314,
      "Ġpublic": 1315,
      "Ġmar": 1316,
      "Ġrequ": 1317,
      "Ġprop": 1318,
      "ony": 1319,
      "Ġsupport": 1320,
      "cient": 1321,
      "ired": 1322,
      "07": 1323,
      "Ġtem": 1324,
      "Ġoper": 1325,
      "ases": 1326,
      "Ġdescrib": 1327,
      "Ġnon": 1328,
      "rodu": 1329,
      "Ġmed": 1330,
      "..": 1331,
      "ological": 1332,
      "ris": 1333,
      "to": 1334,
      "ilar": 1335,
      "Ġpower": 1336,
      "Ġaround": 1337,
      "Ġhistor": 1338,
      "Ġ'": 1339,
      "iving": 1340,
      "ĠDay": 1341,
      "Ġorgan": 1342,
      "ven": 1343,
      "Ġair": 1344,
      "14": 1345,
      "Ġdid": 1346,
      "ĠRuss": 1347,
      "ner": 1348,
      "Ġdr": 1349,
      "Ġorder": 1350,
      "ission": 1351,
      "Ġast": 1352,
      "istic": 1353,
      "aim": 1354,
      "iven": 1355,
      "Ġphys": 1356,
      "ĠAc": 1357,
      "af": 1358,
      "Ġeng": 1359,
      "Ġeven": 1360,
      "ban": 1361,
      "Ġstat": 1362,
      "Ġwater": 1363,
      "amed": 1364,
      "ird": 1365,
      "ple": 1366,
      "ets": 1367,
      "ouse": 1368,
      "12": 1369,
      "Ġseries": 1370,
      "13": 1371,
      "au": 1372,
      "ĠCanad": 1373,
      "ĠArab": 1374,
      "bai": 1375,
      "nal": 1376,
      "eder": 1377,
      "Ġback": 1378,
      "way": 1379,
      "Ġbased": 1380,
      "ĠJap": 1381,
      "zerbai": 1382,
      "zerbaijan": 1383,
      "Ġatom": 1384,
      "ilitary": 1385,
      "ee": 1386,
      "ĠBC": 1387,
      "ĠAll": 1388,
      "ring": 1389,
      "Ġlike": 1390,
      "Ġmuch": 1391,
      "Ġconsidered": 1392,
      "born": 1393,
      "ane": 1394,
      "ask": 1395,
      "Ġprocess": 1396,
      "Ġpar": 1397,
      "Ġsuccess": 1398,
      "Ġestabl": 1399,
      "Ġrad": 1400,
      "Ġarea": 1401,
      "com": 1402,
      "reen": 1403,
      "ĠAthen": 1404,
      "ately": 1405,
      "Ġcharacter": 1406,
      "pen": 1407,
      "aving": 1408,
      "ĠGe": 1409,
      "rad": 1410,
      "ried": 1411,
      "ternal": 1412,
      "ness": 1413,
      "Ġinflu": 1414,
      "Ġdue": 1415,
      "198": 1416,
      "197": 1417,
      "omin": 1418,
      "Ġchild": 1419,
      "nAd": 1420,
      "Ġappro": 1421,
      "Ġoffic": 1422,
      "Ġfun": 1423,
      "ĠĠĠĠ": 1424,
      "ĠWh": 1425,
      "ĠQ": 1426,
      "attle": 1427,
      "ently": 1428,
      "199": 1429,
      "Ġhuman": 1430,
      "ality": 1431,
      "58": 1432,
      "pec": 1433,
      "ove": 1434,
      "Ġvery": 1435,
      "Ġfamily": 1436,
      "writer": 1437,
      "Ġcur": 1438,
      "eter": 1439,
      "Ġfact": 1440,
      "ĠArmen": 1441,
      "Ġhistory": 1442,
      "epend": 1443,
      "Ġmov": 1444,
      "ĠThey": 1445,
      "Ġread": 1446,
      "ĠApp": 1447,
      "ize": 1448,
      "Ġshow": 1449,
      "Ġallow": 1450,
      "Ġfootballer": 1451,
      "por": 1452,
      "Ġbod": 1453,
      "Ġgeneral": 1454,
      "son": 1455,
      "Ġcap": 1456,
      "ĠJew": 1457,
      "omen": 1458,
      "tic": 1459,
      "Ġcour": 1460,
      "cing": 1461,
      "Ġwithin": 1462,
      "br": 1463,
      "ĠNorth": 1464,
      "ĠMus": 1465,
      "Ġright": 1466,
      "Ġstates": 1467,
      "Ġann": 1468,
      "ross": 1469,
      "de": 1470,
      "Ġadv": 1471,
      "ories": 1472,
      "Ġpopulation": 1473,
      "ĠAzerbaijan": 1474,
      "ĠPr": 1475,
      "mb": 1476,
      "estern": 1477,
      "osaur": 1478,
      "Ġrelig": 1479,
      "ental": 1480,
      "Ġpublished": 1481,
      "Ġusing": 1482,
      "rote": 1483,
      "ĠCol": 1484,
      "aced": 1485,
      "ended": 1486,
      "ĠAlbert": 1487,
      "Ġtyp": 1488,
      "pire": 1489,
      "Ġsk": 1490,
      "ĠEar": 1491,
      "Ġrest": 1492,
      "196": 1493,
      "Ġmean": 1494,
      "agn": 1495,
      "ĠAng": 1496,
      "oss": 1497,
      "nG": 1498,
      "arm": 1499,
      "Ġcrit": 1500,
      "urg": 1501,
      "ĠItal": 1502,
      "urther": 1503,
      "The": 1504,
      "eth": 1505,
      "Ġstand": 1506,
      "Ġcontinu": 1507,
      "Ġelectron": 1508,
      "ĠAnt": 1509,
      "Ġpresent": 1510,
      "eb": 1511,
      "aster": 1512,
      "Ġtradition": 1513,
      "ĠThese": 1514,
      "Ġbegan": 1515,
      "Ġcomple": 1516,
      "Ġspecies": 1517,
      "Ġsimilar": 1518,
      "ydro": 1519,
      "by": 1520,
      "Ġmy": 1521,
      "ivil": 1522,
      "olic": 1523,
      "Ġnov": 1524,
      "ĠEd": 1525,
      "Ġreport": 1526,
      "Ġes": 1527,
      "Ġstill": 1528,
      "atural": 1529,
      "ste": 1530,
      "ama": 1531,
      "Ġgreat": 1532,
      "ices": 1533,
      "ĠWill": 1534,
      "Ġarch": 1535,
      "stit": 1536,
      "read": 1537,
      "Ġobs": 1538,
      "ches": 1539,
      "Ġless": 1540,
      "nAl": 1541,
      "Ġla": 1542,
      "Ġvis": 1543,
      "Ġnow": 1544,
      "ray": 1545,
      "Ġlanguages": 1546,
      "ason": 1547,
      "Ġgu": 1548,
      "Ġcomput": 1549,
      "Ġrepresent": 1550,
      "ĠSw": 1551,
      "Ġproper": 1552,
      "ĠUnion": 1553,
      "ves": 1554,
      "Ġwrote": 1555,
      "ĠKing": 1556,
      "Ġshort": 1557,
      "ccording": 1558,
      "ean": 1559,
      "Ġvers": 1560,
      "day": 1561,
      "Ġhig": 1562,
      "wards": 1563,
      "Ġfollowing": 1564,
      "ably": 1565,
      "Ġpat": 1566,
      "Ġvarious": 1567,
      "Ġparticular": 1568,
      "rem": 1569,
      "alth": 1570,
      "ĠBy": 1571,
      "Ġview": 1572,
      "Ġsomet": 1573,
      "Ġrecord": 1574,
      "ham": 1575,
      "Ġav": 1576,
      "ink": 1577,
      "iness": 1578,
      "Ġgl": 1579,
      "aut": 1580,
      "Ġter": 1581,
      "Ġsug": 1582,
      "berg": 1583,
      "Ġimportant": 1584,
      "Ġide": 1585,
      "ata": 1586,
      "Ġdem": 1587,
      "Ġplace": 1588,
      "ination": 1589,
      "ĠThere": 1590,
      "ĠUS": 1591,
      ".,": 1592,
      "ergy": 1593,
      "ĠPl": 1594,
      "ĠPar": 1595,
      "Ġarm": 1596,
      "Ġbuild": 1597,
      "Ġwhat": 1598,
      "Ġsinger": 1599,
      "Ġdiv": 1600,
      "rand": 1601,
      "Ġopp": 1602,
      "Ġhand": 1603,
      "Ġproduction": 1604,
      "Ġaff": 1605,
      "sc": 1606,
      "Ġ12": 1607,
      "raft": 1608,
      "ril": 1609,
      "Ġinc": 1610,
      "Ġprom": 1611,
      "Ġworks": 1612,
      "Ġpract": 1613,
      "olution": 1614,
      "\\\".\\": 1615,
      "200": 1616,
      "Ġneed": 1617,
      "lands": 1618,
      "ales": 1619,
      "etic": 1620,
      "Ġ14": 1621,
      "Ġarg": 1622,
      "Ġoccur": 1623,
      "put": 1624,
      "ze": 1625,
      "eng": 1626,
      "Ġbeg": 1627,
      "ones": 1628,
      "194": 1629,
      "ior": 1630,
      "ung": 1631,
      "Ġalong": 1632,
      "ĠRo": 1633,
      "iron": 1634,
      "ĠHis": 1635,
      "ured": 1636,
      "ĠBl": 1637,
      "Ġanother": 1638,
      "Ġtheory": 1639,
      "isc": 1640,
      "Ġsaid": 1641,
      "ele": 1642,
      "Ġbus": 1643,
      "ĠRep": 1644,
      "oci": 1645,
      "gypt": 1646,
      "Ġanal": 1647,
      "Ġpain": 1648,
      "Ġperform": 1649,
      "Ġcond": 1650,
      "arn": 1651,
      "hod": 1652,
      "ĠAlexander": 1653,
      "ilt": 1654,
      "Ġorigin": 1655,
      "Ġspace": 1656,
      "ler": 1657,
      "vers": 1658,
      "ither": 1659,
      "arian": 1660,
      "Ġhal": 1661,
      "Ġmark": 1662,
      "Ġ186": 1663,
      "Ġevery": 1664,
      "Ġstruct": 1665,
      "ogn": 1666,
      "Ġlast": 1667,
      "akes": 1668,
      "Ġschool": 1669,
      "Ġrece": 1670,
      "ential": 1671,
      "Ġactor": 1672,
      "Ġmilitary": 1673,
      "Ġline": 1674,
      "ĠChar": 1675,
      "Ġbecome": 1676,
      "Ġsuggest": 1677,
      "Ġcaus": 1678,
      "ĠGod": 1679,
      "ĠNational": 1680,
      "ĠApple": 1681,
      "Ġclaim": 1682,
      "embers": 1683,
      "idd": 1684,
      "Ġcountries": 1685,
      "app": 1686,
      "Ġlargest": 1687,
      "ym": 1688,
      "Ġrele": 1689,
      "ration": 1690,
      "tal": 1691,
      "Ġfin": 1692,
      "alt": 1693,
      "Ġ13": 1694,
      "emit": 1695,
      "ertain": 1696,
      "Ġled": 1697,
      "Ġtreat": 1698,
      "Ġfore": 1699,
      "Ġacadem": 1700,
      "Ġreturn": 1701,
      "less": 1702,
      "Ġfre": 1703,
      "Ġgiven": 1704,
      "Ġhead": 1705,
      "Ġobserv": 1706,
      "bers": 1707,
      "Ġgod": 1708,
      "abor": 1709,
      "ards": 1710,
      "Ġeduc": 1711,
      "Ġpopular": 1712,
      "Ġexist": 1713,
      "Ġcontrol": 1714,
      "Ġ$": 1715,
      "ography": 1716,
      "anese": 1717,
      "Ġacid": 1718,
      "ribut": 1719,
      "ĠAustralian": 1720,
      "Ġbas": 1721,
      "Ġmater": 1722,
      "une": 1723,
      "Ġnamed": 1724,
      "ĠCent": 1725,
      "idence": 1726,
      "ivid": 1727,
      "nRe": 1728,
      "Ġson": 1729,
      "Ġstart": 1730,
      "Ġgrow": 1731,
      "hemat": 1732,
      "ino": 1733,
      "Ġmake": 1734,
      "ention": 1735,
      "Ġkill": 1736,
      "Ġsold": 1737,
      "Ġpass": 1738,
      "ĠEgypt": 1739,
      "Ġfew": 1740,
      "Ġreal": 1741,
      "ĠTur": 1742,
      "empt": 1743,
      "ipp": 1744,
      "sen": 1745,
      "Ġwithout": 1746,
      "Ġvol": 1747,
      "Ġhel": 1748,
      "istory": 1749,
      "Ġresp": 1750,
      "Ġdeveloped": 1751,
      "ude": 1752,
      "Ġintrodu": 1753,
      "get": 1754,
      "ule": 1755,
      "atter": 1756,
      "Ġprot": 1757,
      "Ġpolitical": 1758,
      "CC": 1759,
      "astern": 1760,
      "Ġcomb": 1761,
      "Ġel": 1762,
      "Ġstudy": 1763,
      "bit": 1764,
      "Ġhydro": 1765,
      "most": 1766,
      "ances": 1767,
      "merican": 1768,
      "ĠYork": 1769,
      "Ġsocial": 1770,
      "lear": 1771,
      "Ġlim": 1772,
      "augh": 1773,
      "dom": 1774,
      "Ġabs": 1775,
      "ĠChurch": 1776,
      "ends": 1777,
      "Ġincluded": 1778,
      "Ġport": 1779,
      "rew": 1780,
      "Ġstrong": 1781,
      "Ġtit": 1782,
      "ĠAfter": 1783,
      "Ġmass": 1784,
      "overed": 1785,
      "Ġfield": 1786,
      "rap": 1787,
      "Ġactiv": 1788,
      "21": 1789,
      "line": 1790,
      "Ġ-": 1791,
      "Ġpoint": 1792,
      ".\\\"\\": 1793,
      "gor": 1794,
      "Ġgo": 1795,
      "ournal": 1796,
      "ruction": 1797,
      "Ġax": 1798,
      "arb": 1799,
      "Ġredu": 1800,
      "Ġtele": 1801,
      "Ġbi": 1802,
      "ĠEmpire": 1803,
      "istan": 1804,
      "Ġprim": 1805,
      "self": 1806,
      "uth": 1807,
      "Ġalthough": 1808,
      "Ġastron": 1809,
      "Ġopen": 1810,
      "Ġproduced": 1811,
      "Ġer": 1812,
      "Ġway": 1813,
      "Ġident": 1814,
      "Ġlevel": 1815,
      "ara": 1816,
      "Ġder": 1817,
      "hers": 1818,
      "ĠAmerica": 1819,
      "ĠWilliam": 1820,
      "ky": 1821,
      "of": 1822,
      "anish": 1823,
      "Ġancient": 1824,
      "ĠEl": 1825,
      "ope": 1826,
      "nEx": 1827,
      "Ġbody": 1828,
      "irth": 1829,
      "Ġwritten": 1830,
      "Ġlight": 1831,
      "ĠDav": 1832,
      "Ġmethod": 1833,
      "ĠComm": 1834,
      "ĠAch": 1835,
      "Ġalk": 1836,
      "ĠHer": 1837,
      "ops": 1838,
      "Ġcompos": 1839,
      "Ġhowever": 1840,
      "ĠPo": 1841,
      "Ġenergy": 1842,
      "Ġproduct": 1843,
      "Ġ[": 1844,
      "ĠChristian": 1845,
      "Ġlow": 1846,
      "Ġgen": 1847,
      "Ġday": 1848,
      "Ġindivid": 1849,
      "Ġaddition": 1850,
      "ĠSome": 1851,
      "Ġnational": 1852,
      "aining": 1853,
      "Ġrun": 1854,
      "Ġothers": 1855,
      "ĠArabic": 1856,
      "Ġacademic": 1857,
      "Ġcr": 1858,
      "195": 1859,
      "ublic": 1860,
      "Ġtook": 1861,
      "193": 1862,
      "ificant": 1863,
      "Ġtimes": 1864,
      "Ġmaterial": 1865,
      "ĠEx": 1866,
      "ĠOct": 1867,
      "Ġindust": 1868,
      "Ġindepend": 1869,
      "ats": 1870,
      "Ġengine": 1871,
      "osaurus": 1872,
      "Ġmembers": 1873,
      "ĠMay": 1874,
      "Ġ190": 1875,
      "text": 1876,
      "inister": 1877,
      "eum": 1878,
      "Ġ{": 1879,
      "Ġprof": 1880,
      "orthern": 1881,
      "Ġ189": 1882,
      "iction": 1883,
      "ining": 1884,
      "Ġbase": 1885,
      "Ġleft": 1886,
      ":/": 1887,
      "Ġmult": 1888,
      "irc": 1889,
      "ĠPol": 1890,
      "ument": 1891,
      "Ġprev": 1892,
      "ode": 1893,
      "Ġdevelopment": 1894,
      "ites": 1895,
      "ots": 1896,
      "ĠAss": 1897,
      "://": 1898,
      "Ġsepar": 1899,
      "Ġpoet": 1900,
      "pir": 1901,
      "Ã¡": 1902,
      "itive": 1903,
      "Ġnatural": 1904,
      "ĠCal": 1905,
      "ophy": 1906,
      "Ġlate": 1907,
      "11": 1908,
      "url": 1909,
      "Ġrese": 1910,
      "ĠJu": 1911,
      "Ġobject": 1912,
      "Ġadm": 1913,
      "Ġnorth": 1914,
      "ources": 1915,
      "co": 1916,
      "aul": 1917,
      "anu": 1918,
      "Ġcase": 1919,
      "acy": 1920,
      "ype": 1921,
      "Ġsingle": 1922,
      "Ġpot": 1923,
      "Ġproble": 1924,
      "ttps": 1925,
      "source": 1926,
      "Ġconf": 1927,
      "udi": 1928,
      "Ġinvol": 1929,
      "ĠAtl": 1930,
      "iber": 1931,
      "ency": 1932,
      "Ġmathemat": 1933,
      "side": 1934,
      "Ġmeas": 1935,
      "Ġdirector": 1936,
      "Ġdescribed": 1937,
      "nAdrian": 1938,
      "cial": 1939,
      "fet": 1940,
      "Ġmillion": 1941,
      "Ġsyn": 1942,
      "ification": 1943,
      "Ġestablished": 1944,
      "Ġiss": 1945,
      "Ġformer": 1946,
      "Ġalph": 1947,
      "ferences": 1948,
      "pecially": 1949,
      "bs": 1950,
      "https": 1951,
      "Ġcal": 1952,
      "ĠShe": 1953,
      "ploy": 1954,
      "Ġevent": 1955,
      "Ġsignificant": 1956,
      "Ġlocal": 1957,
      "BY": 1958,
      "Ġheld": 1959,
      "atin": 1960,
      "Ġdown": 1961,
      "Ġdev": 1962,
      "Ġdoes": 1963,
      "rag": 1964,
      "Ġusually": 1965,
      "lection": 1966,
      "ĠAngl": 1967,
      "fetched": 1968,
      "Ġhaving": 1969,
      "Ġbeh": 1970,
      "wiki": 1971,
      "\"}": 1972,
      "ma": 1973,
      "ĠMon": 1974,
      "2025": 1975,
      "Ġjust": 1976,
      "Ġrelations": 1977,
      "Ġassoci": 1978,
      "ĠEngland": 1979,
      "license": 1980,
      "curid": 1981,
      "Ġ{\"": 1982,
      "lor": 1983,
      "inks": 1984,
      "oln": 1985,
      "Ġsometimes": 1986,
      "Ġpur": 1987,
      "ĠAsh": 1988,
      "oon": 1989,
      "Ġmen": 1990,
      "bo": 1991,
      "atures": 1992,
      "Ġdecl": 1993,
      "II": 1994,
      "cul": 1995,
      "sh": 1996,
      "Ġchem": 1997,
      "Ġregion": 1998,
      "ison": 1999,
      "Ġforces": 2000,
      "Ġnovel": 2001,
      "Ġbo": 2002,
      "Ġmot": 2003,
      "Ġrul": 2004,
      "yr": 2005,
      "Ġsum": 2006,
      "outhern": 2007,
      "Ġscient": 2008,
      "incoln": 2009,
      "Ġgroups": 2010,
      "ĠApril": 2011,
      "Ġoriginal": 2012,
      "Ġchildren": 2013,
      "ĠNov": 2014,
      "incip": 2015,
      "ĠCanadian": 2016,
      "Ġproducer": 2017,
      "Ġbusiness": 2018,
      "ĠTurk": 2019,
      "Ġturn": 2020,
      "Ġfather": 2021,
      "rain": 2022,
      "ĠEarth": 2023,
      "ĠBe": 2024,
      "ĠArist": 2025,
      "sequ": 2026,
      "ali": 2027,
      "Ġeither": 2028,
      "umin": 2029,
      "century": 2030,
      "Ġelements": 2031,
      "not": 2032,
      "Ġhimself": 2033,
      "Ġsee": 2034,
      "ered": 2035,
      "Ġsent": 2036,
      "rial": 2037,
      "Ġattempt": 2038,
      "ĠFrance": 2039,
      "Ã¶": 2040,
      "Ġchang": 2041,
      "Ġbuilt": 2042,
      "Ġmusic": 2043,
      "stein": 2044,
      "Ġliter": 2045,
      "ĠWhen": 2046,
      "ĠJapanese": 2047,
      "craft": 2048,
      "ĠPres": 2049,
      "osp": 2050,
      "inese": 2051,
      "Ġshould": 2052,
      "rated": 2053,
      "Ġage": 2054,
      "ret": 2055,
      "Ġfive": 2056,
      "used": 2057,
      "aken": 2058,
      "formation": 2059,
      "Ġcreated": 2060,
      "face": 2061,
      "nel": 2062,
      "Ġcare": 2063,
      "Ġcame": 2064,
      "Ġinit": 2065,
      "ĠInternational": 2066,
      "ongwriter": 2067,
      "cil": 2068,
      "Ġhome": 2069,
      "Ġterrit": 2070,
      "imate": 2071,
      "Ġexpress": 2072,
      "ead": 2073,
      "ĠMed": 2074,
      "ability": 2075,
      "oviet": 2076,
      "Ġrecogn": 2077,
      "Ġappear": 2078,
      "ols": 2079,
      "igu": 2080,
      "ĠNe": 2081,
      "ctor": 2082,
      "ĠEuropean": 2083,
      "Ġold": 2084,
      "Ġinf": 2085,
      "ingu": 2086,
      "Ġep": 2087,
      "Ġmanag": 2088,
      "Ġnumbers": 2089,
      "Ġfunction": 2090,
      "Ġking": 2091,
      "Ġearl": 2092,
      "ĠRussian": 2093,
      "50": 2094,
      "Ġespecially": 2095,
      "ĠHar": 2096,
      "Ġill": 2097,
      "ĠArmenia": 2098,
      "Ġdiff": 2099,
      "Ġhalf": 2100,
      "Ġhelp": 2101,
      "Ġjournal": 2102,
      "ĠIndian": 2103,
      "Ġnuc": 2104,
      "che": 2105,
      "ef": 2106,
      "unct": 2107,
      "Ġsystems": 2108,
      "ola": 2109,
      "rick": 2110,
      "Ġox": 2111,
      "Ġdel": 2112,
      "ula": 2113,
      "ondon": 2114,
      "Ġpred": 2115,
      "Ġleast": 2116,
      "Ġscreen": 2117,
      "Ġtemper": 2118,
      "Ġsymb": 2119,
      "Ġforms": 2120,
      "Ġschol": 2121,
      "ricult": 2122,
      "Ġrepl": 2123,
      "Ġlinks": 2124,
      "Ġ2013": 2125,
      "Ã¼": 2126,
      "ysis": 2127,
      "nReferences": 2128,
      "for": 2129,
      "gle": 2130,
      "hol": 2131,
      "wh": 2132,
      "Ġge": 2133,
      "ĠLincoln": 2134,
      "Ġcompany": 2135,
      "iddle": 2136,
      "ming": 2137,
      "nAs": 2138,
      "Ġtransl": 2139,
      "now": 2140,
      "Ġhow": 2141,
      "ela": 2142,
      "Ġeth": 2143,
      "Ġareas": 2144,
      "ĠAustralia": 2145,
      "ape": 2146,
      "lam": 2147,
      "throp": 2148,
      "Ġ.": 2149,
      "ĠAsia": 2150,
      "asing": 2151,
      "inning": 2152,
      "ĠX": 2153,
      "ached": 2154,
      "oms": 2155,
      "aces": 2156,
      "Ġrather": 2157,
      "Ġ2012": 2158,
      "ĠConf": 2159,
      "gorith": 2160,
      "ghan": 2161,
      "att": 2162,
      "alk": 2163,
      "omb": 2164,
      "udd": 2165,
      "Ġ188": 2166,
      "Ġaccept": 2167,
      "ounds": 2168,
      "Ġ2014": 2169,
      "Ġformed": 2170,
      "ĠJuly": 2171,
      "anuary": 2172,
      "vision": 2173,
      "itect": 2174,
      "Ġlit": 2175,
      "ĠChinese": 2176,
      "Ġsw": 2177,
      "Ġdest": 2178,
      "iest": 2179,
      "Ġmodel": 2180,
      "Ġthought": 2181,
      "val": 2182,
      "Ġ11": 2183,
      "aves": 2184,
      "sp": 2185,
      "Ġsouth": 2186,
      "Ġpa": 2187,
      "Ġstory": 2188,
      "Ġtake": 2189,
      "Ġcirc": 2190,
      "Ġmer": 2191,
      "Ġdied": 2192,
      "ille": 2193,
      "ected": 2194,
      "eneral": 2195,
      "ĠPhil": 2196,
      "Ġpossible": 2197,
      "oid": 2198,
      "Ġfar": 2199,
      "antic": 2200,
      "Ġyoun": 2201,
      "mber": 2202,
      "itch": 2203,
      "Ġgenerally": 2204,
      "Ġmust": 2205,
      "ĠSoviet": 2206,
      "Ġevidence": 2207,
      "action": 2208,
      "Ġbre": 2209,
      "Ġconc": 2210,
      "ĠLondon": 2211,
      "ffic": 2212,
      "Ġjo": 2213,
      "American": 2214,
      "ĠPers": 2215,
      "ways": 2216,
      "Ġactress": 2217,
      "nd": 2218,
      "Ġ(\\\"": 2219,
      "ements": 2220,
      "ples": 2221,
      "ĠSept": 2222,
      "Ġdefe": 2223,
      "dam": 2224,
      "like": 2225,
      "ĠBer": 2226,
      "Ġinterest": 2227,
      "ĠJews": 2228,
      "ald": 2229,
      "Ġcamp": 2230,
      "ĠJanuary": 2231,
      "Ġindic": 2232,
      "Ġsal": 2233,
      "ĠAccording": 2234,
      "ĠPart": 2235,
      "Ġcourt": 2236,
      "Ġversion": 2237,
      "enced": 2238,
      "ĠGu": 2239,
      "atholic": 2240,
      "Ġreligious": 2241,
      "Ġmeaning": 2242,
      "Un": 2243,
      "ague": 2244,
      "rod": 2245,
      "Ġlower": 2246,
      "Ġthird": 2247,
      "ĠCam": 2248,
      "imately": 2249,
      "Ġforce": 2250,
      "ify": 2251,
      "ĠOther": 2252,
      "Ġmeans": 2253,
      "Ġoil": 2254,
      "Ġsix": 2255,
      "Ġbirth": 2256,
      "ĠNo": 2257,
      "oka": 2258,
      "Ġtax": 2259,
      "Ġsubject": 2260,
      "Ġfri": 2261,
      "ĠBattle": 2262,
      "Ġ2010": 2263,
      "Ġheav": 2264,
      "peror": 2265,
      "eh": 2266,
      "Ġwon": 2267,
      "Ġfig": 2268,
      "ĠAD": 2269,
      "ths": 2270,
      "cript": 2271,
      "iol": 2272,
      "Ġ0": 2273,
      "Ġver": 2274,
      "Ġtest": 2275,
      "Ġcertain": 2276,
      "aries": 2277,
      "Ġgood": 2278,
      "ĠBook": 2279,
      "Ġprincip": 2280,
      "Ġspecial": 2281,
      "ique": 2282,
      "Ġwords": 2283,
      "Ġtype": 2284,
      "Ġside": 2285,
      "Ġtop": 2286,
      "Ġalb": 2287,
      "ĠWest": 2288,
      "ief": 2289,
      ");": 2290,
      "cember": 2291,
      "ĠDavid": 2292,
      "yle": 2293,
      "Ġnever": 2294,
      "Ġconsist": 2295,
      "Ġexperim": 2296,
      "Ġcurrent": 2297,
      "ĠSeptember": 2298,
      "Ġwid": 2299,
      "Ġthus": 2300,
      "ĠPer": 2301,
      "Ġ2015": 2302,
      "Ġposition": 2303,
      "Ġterms": 2304,
      "BC": 2305,
      "Â°": 2306,
      "Ġfinal": 2307,
      "Ġfurther": 2308,
      "Ġseen": 2309,
      "ĠItalian": 2310,
      "Ġden": 2311,
      "ending": 2312,
      "rican": 2313,
      "Ġbecom": 2314,
      "ote": 2315,
      "Ġprob": 2316,
      "ĠAlban": 2317,
      "Ġknow": 2318,
      "rant": 2319,
      "Ġi": 2320,
      "rel": 2321,
      "itted": 2322,
      "Ġet": 2323,
      "ored": 2324,
      "nExternal": 2325,
      "ole": 2326,
      "viron": 2327,
      "Ġ&": 2328,
      "ĠSoc": 2329,
      "ĠCong": 2330,
      "Ġalc": 2331,
      "ĠLatin": 2332,
      "Ġabove": 2333,
      "ĠAnglican": 2334,
      "Ġren": 2335,
      "rica": 2336,
      "oyal": 2337,
      "sy": 2338,
      "ued": 2339,
      "Ġinternational": 2340,
      "upunct": 2341,
      "ĠPat": 2342,
      "Ġrange": 2343,
      "nOn": 2344,
      "Ġresearch": 2345,
      "OL": 2346,
      "burg": 2347,
      "Ġ.\\": 2348,
      "ceed": 2349,
      "ĠMarch": 2350,
      "Ġhigher": 2351,
      "Ġtotal": 2352,
      "Ġdata": 2353,
      "ĠBell": 2354,
      "ĠPe": 2355,
      "que": 2356,
      "ĠOne": 2357,
      "Ġitself": 2358,
      "Ġcentral": 2359,
      "hib": 2360,
      "ĠMan": 2361,
      "ĠAthens": 2362,
      "Ġarmy": 2363,
      "rot": 2364,
      "ĠChina": 2365,
      "Ġrole": 2366,
      "Ġquant": 2367,
      "Ġeconomic": 2368,
      "Ġbest": 2369,
      "omy": 2370,
      "Ġregard": 2371,
      "ĠDecember": 2372,
      "Ġpost": 2373,
      "Ġalmost": 2374,
      "ĠThom": 2375,
      "Ġparts": 2376,
      "sterdam": 2377,
      "Ġprevious": 2378,
      "ĠÃ": 2379,
      "Ġcapt": 2380,
      "Ġcomplex": 2381,
      "ems": 2382,
      "Ġadop": 2383,
      "ĠZe": 2384,
      "ĠAcadem": 2385,
      "ery": 2386,
      "icult": 2387,
      "Ġ187": 2388,
      "ĠPresident": 2389,
      "192": 2390,
      "ĠAfghan": 2391,
      "right": 2392,
      "inted": 2393,
      "Ġ24": 2394,
      "atory": 2395,
      "Ġfree": 2396,
      "ĠAct": 2397,
      "abama": 2398,
      "Ġenc": 2399,
      "Ġaccording": 2400,
      "Ġwriting": 2401,
      "ĠCharles": 2402,
      "li": 2403,
      "oice": 2404,
      "ties": 2405,
      "orge": 2406,
      "Ġpers": 2407,
      "Ġthroughout": 2408,
      "Ġtro": 2409,
      "Ġwomen": 2410,
      "Ġhold": 2411,
      "utch": 2412,
      "ney": 2413,
      "yer": 2414,
      "ibr": 2415,
      "Ġnext": 2416,
      "ĠAfrica": 2417,
      "ober": 2418,
      "uf": 2419,
      "rict": 2420,
      "Ġcomputer": 2421,
      "Ġfood": 2422,
      "Ġmaking": 2423,
      "ads": 2424,
      "Ġalgorith": 2425,
      "Ġpriv": 2426,
      "Ġattack": 2427,
      "Ġupon": 2428,
      "30": 2429,
      "hus": 2430,
      "isemit": 2431,
      "ours": 2432,
      "clus": 2433,
      "Ġemploy": 2434,
      "ĠNovember": 2435,
      "ĠConfeder": 2436,
      "let": 2437,
      "ĠPress": 2438,
      "Ġconcept": 2439,
      "Ġproject": 2440,
      "ands": 2441,
      "Ġrelat": 2442,
      "ĠAchill": 2443,
      "Ġreported": 2444,
      "ault": 2445,
      "lin": 2446,
      "songwriter": 2447,
      "orph": 2448,
      "Ġmount": 2449,
      "lement": 2450,
      "Ġtown": 2451,
      "Ġris": 2452,
      "Ġculture": 2453,
      "Ġcapital": 2454,
      "Ġcontinued": 2455,
      "upuncture": 2456,
      "itude": 2457,
      "Ġvict": 2458,
      "Ġscript": 2459,
      "Ġcarb": 2460,
      "Ġtw": 2461,
      "reg": 2462,
      "itu": 2463,
      "Ġwhe": 2464,
      "Ġfall": 2465,
      "ford": 2466,
      "Ġmother": 2467,
      "unic": 2468,
      "ĠSea": 2469,
      "Ġdefin": 2470,
      "ators": 2471,
      "Ġabb": 2472,
      "Ġke": 2473,
      "ront": 2474,
      "Ġfounded": 2475,
      "ivity": 2476,
      "aps": 2477,
      "Ġrespect": 2478,
      "Ġphilosop": 2479,
      "Ġofficial": 2480,
      "Ġcritic": 2481,
      "ĠTo": 2482,
      "stant": 2483,
      "Ġgave": 2484,
      "ĠWestern": 2485,
      "ounced": 2486,
      "Ġanti": 2487,
      "Ġservice": 2488,
      "Ġvalue": 2489,
      "uk": 2490,
      "upp": 2491,
      "Ġ=": 2492,
      "Ġfind": 2493,
      "chan": 2494,
      "imal": 2495,
      "ulf": 2496,
      "nSee": 2497,
      "Ġstandard": 2498,
      "uddh": 2499,
      "mp": 2500,
      "ux": 2501,
      "ĠAar": 2502,
      "Ġhost": 2503,
      "ĠMc": 2504,
      "Ġmetal": 2505,
      "Ġjournalist": 2506,
      "ware": 2507,
      "ĠTe": 2508,
      "lim": 2509,
      "ĠAS": 2510,
      "Ġgas": 2511,
      "ĠGreat": 2512,
      "Ġaccount": 2513,
      "Ġfollowed": 2514,
      "Ġimpro": 2515,
      "Ġlocated": 2516,
      "Ġarchitect": 2517,
      "aint": 2518,
      "orts": 2519,
      "Ġchange": 2520,
      "ĠArt": 2521,
      "Ġ30": 2522,
      "ĠOctober": 2523,
      "ington": 2524,
      "Ġmag": 2525,
      "ĠCo": 2526,
      "ĠJune": 2527,
      "Ġrelated": 2528,
      "Ġbooks": 2529,
      "order": 2530,
      "ĠHen": 2531,
      "nAr": 2532,
      "ĠAshoka": 2533,
      "bra": 2534,
      "Ġcontin": 2535,
      "arily": 2536,
      "ĠCatholic": 2537,
      "Ġsuper": 2538,
      "Ġassemb": 2539,
      "Ġassociated": 2540,
      "Ġfail": 2541,
      "Ġentire": 2542,
      "Ġavail": 2543,
      "ont": 2544,
      "ĠAir": 2545,
      "Ġdi": 2546,
      "Ġlist": 2547,
      "ĠCor": 2548,
      "ĠSpanish": 2549,
      "Ġdeterm": 2550,
      "Ġbuilding": 2551,
      "uminium": 2552,
      "ades": 2553,
      "ption": 2554,
      "Ġ2009": 2555,
      "Ġsurface": 2556,
      "Ġdistin": 2557,
      "Ġlaun": 2558,
      "ĠRobert": 2559,
      "Ġfrequ": 2560,
      "ĠAristot": 2561,
      "Ġess": 2562,
      "ÃŃ": 2563,
      "Ġtre": 2564,
      "instein": 2565,
      "Ġsong": 2566,
      "Ġoffer": 2567,
      "Ġcy": 2568,
      "amples": 2569,
      "ĠPaul": 2570,
      "ishing": 2571,
      "Ġplan": 2572,
      "ĠState": 2573,
      "Ġphot": 2574,
      "oses": 2575,
      "ĠWall": 2576,
      "cret": 2577,
      "ĠArmy": 2578,
      "ĠIndia": 2579,
      "ĠAcademy": 2580,
      "Ġ+": 2581,
      "hest": 2582,
      "omm": 2583,
      "uries": 2584,
      "ouncil": 2585,
      "Ġevents": 2586,
      "Ġunderst": 2587,
      "pite": 2588,
      "utions": 2589,
      "ĠEast": 2590,
      "ĠDuring": 2591,
      "ĠRev": 2592,
      "Ġdifficult": 2593,
      "ĠBra": 2594,
      "Ġlet": 2595,
      "monia": 2596,
      "...": 2597,
      "raw": 2598,
      "ĠDo": 2599,
      "Ġdays": 2600,
      "Ġlost": 2601,
      "ishop": 2602,
      "Ġtext": 2603,
      "Ġelement": 2604,
      "sel": 2605,
      "Ġcivil": 2606,
      "ĠMor": 2607,
      "ows": 2608,
      "Ġdeb": 2609,
      "resp": 2610,
      "Ġprofess": 2611,
      "ett": 2612,
      "ĠVol": 2613,
      "ologist": 2614,
      "Ġindividual": 2615,
      "erous": 2616,
      "ams": 2617,
      "Ġcondu": 2618,
      "ĠGermany": 2619,
      "Ġtraditional": 2620,
      "ari": 2621,
      "ipl": 2622,
      "Ġacross": 2623,
      "Ġ2011": 2624,
      "lected": 2625,
      "Ġbroad": 2626,
      "Ġanalysis": 2627,
      "ĠHol": 2628,
      "Ġarsen": 2629,
      "Ġstructure": 2630,
      "Ġreceived": 2631,
      "vironment": 2632,
      "cle": 2633,
      "rid": 2634,
      "roy": 2635,
      "Ġnature": 2636,
      "ĠMinister": 2637,
      "ĠJames": 2638,
      "ĠAlabama": 2639,
      "Ġintroduced": 2640,
      "Ġexcept": 2641,
      "Ġscience": 2642,
      "Ġground": 2643,
      "reme": 2644,
      "Ġcomposer": 2645,
      "rest": 2646,
      "Ġ100": 2647,
      "Ġbelieved": 2648,
      "iers": 2649,
      "Ġfac": 2650,
      "Ġclos": 2651,
      "Ġ25": 2652,
      "Ġinfluence": 2653,
      "ĠAinu": 2654,
      "Ġmach": 2655,
      "Ġgre": 2656,
      "ĠAmsterdam": 2657,
      "Ġphilosophy": 2658,
      "ĠGeorge": 2659,
      "ĠKingdom": 2660,
      "Ġreleased": 2661,
      "ened": 2662,
      "Ġfoc": 2663,
      "Ġfull": 2664,
      "\\\")": 2665,
      "Ġapprox": 2666,
      "Ġcause": 2667,
      "otes": 2668,
      "ift": 2669,
      "Ġneg": 2670,
      "Ġinstead": 2671,
      "aign": 2672,
      "ĠInstit": 2673,
      "Ġfilms": 2674,
      "aud": 2675,
      "van": 2676,
      "Ġtaken": 2677,
      "Ġtour": 2678,
      "amb": 2679,
      "ĠDutch": 2680,
      "Ġlog": 2681,
      "istics": 2682,
      "ĠBar": 2683,
      "ume": 2684,
      "Ġ2008": 2685,
      "Ġ1990": 2686,
      "Ġ1980": 2687,
      "Ġinterp": 2688,
      "Ġinvest": 2689,
      "Ġreferred": 2690,
      "ras": 2691,
      "uel": 2692,
      "ĠHistory": 2693,
      "Ġwhose": 2694,
      "ĠAlthough": 2695,
      "ĠAfrican": 2696,
      "aska": 2697,
      "ling": 2698,
      "ush": 2699,
      "Ġhouse": 2700,
      "Ġlik": 2701,
      "ĠBel": 2702,
      "ĠRiver": 2703,
      "Ġord": 2704,
      "Ġ2007": 2705,
      "Ġtitle": 2706,
      "Ġhard": 2707,
      "ĠRes": 2708,
      "Ġestim": 2709,
      "Ġlawyer": 2710,
      "rum": 2711,
      "Ġaver": 2712,
      "Ġpress": 2713,
      "ripp": 2714,
      "play": 2715,
      "Ġcharacters": 2716,
      "Ġrelationship": 2717,
      "ges": 2718,
      "ints": 2719,
      "Ġcoll": 2720,
      "icle": 2721,
      "phrod": 2722,
      "Ġabort": 2723,
      "Ġ2018": 2724,
      "respond": 2725,
      "ilities": 2726,
      "190": 2727,
      "Ġlett": 2728,
      "Ġspok": 2729,
      "Ġagre": 2730,
      "awa": 2731,
      "Ġcoast": 2732,
      "ĠScott": 2733,
      "mond": 2734,
      "Ġcop": 2735,
      "ĠPri": 2736,
      "Ġ2000": 2737,
      "ĠArch": 2738,
      "Ġmem": 2739,
      "utes": 2740,
      "ĠBuddh": 2741,
      "ĠRepublic": 2742,
      "elaide": 2743,
      "Ġmagn": 2744,
      "Ġreason": 2745,
      "Ġgra": 2746,
      "rim": 2747,
      "ana": 2748,
      "anth": 2749,
      "Ġdeg": 2750,
      "Ġ2006": 2751,
      "ria": 2752,
      "ĠAv": 2753,
      "ĠCity": 2754,
      "ĠCount": 2755,
      "ĠCivil": 2756,
      "ulated": 2757,
      "Ġrate": 2758,
      "Ġdiscovered": 2759,
      "medi": 2760,
      "nown": 2761,
      "ta": 2762,
      "Ġtoget": 2763,
      "ĠJapan": 2764,
      "Ġavailable": 2765,
      "Ġtogether": 2766,
      "Ġnames": 2767,
      "ston": 2768,
      "Ġaltern": 2769,
      "Ġ2016": 2770,
      "Ġ2017": 2771,
      "Ġreview": 2772,
      "rast": 2773,
      "istor": 2774,
      "PL": 2775,
      "ving": 2776,
      "work": 2777,
      "Ġcit": 2778,
      "Ġfund": 2779,
      "Ġacupuncture": 2780,
      "An": 2781,
      "Ġanarch": 2782,
      "Ġkey": 2783,
      "Ġproperties": 2784,
      "ĠThomas": 2785,
      "phrodite": 2786,
      "rig": 2787,
      "enh": 2788,
      "Ġsat": 2789,
      "Ġbur": 2790,
      "Ġmember": 2791,
      "omer": 2792,
      "ĠPort": 2793,
      "ights": 2794,
      "Ġaccess": 2795,
      "ĠCongress": 2796,
      "ael": 2797,
      "ĠAudi": 2798,
      "Ġlive": 2799,
      "Ġliving": 2800,
      "Ġviol": 2801,
      "ĠAnton": 2802,
      "Ġincludes": 2803,
      "ebru": 2804,
      "elling": 2805,
      "Ġtrade": 2806,
      "Ġbrother": 2807,
      "ensive": 2808,
      "rought": 2809,
      "Ġengineer": 2810,
      "ebruary": 2811,
      "Ġcases": 2812,
      "rown": 2813,
      "Ġnorthern": 2814,
      "ĠAlger": 2815,
      "Ġcolon": 2816,
      "Ġcommunity": 2817,
      "ĠWhile": 2818,
      "Äģ": 2819,
      "ĠMex": 2820,
      "irit": 2821,
      "Ġmoved": 2822,
      "Ġ1960": 2823,
      "Ġremained": 2824,
      "ĠWarhol": 2825,
      "ĠCanada": 2826,
      "Ġrights": 2827,
      "inter": 2828,
      "Ġcat": 2829,
      "Ġorbit": 2830,
      "ĠWith": 2831,
      "Ġunivers": 2832,
      "Ġacids": 2833,
      "Ġletters": 2834,
      "Ġfav": 2835,
      "ĠRome": 2836,
      "resnel": 2837,
      "Ġremains": 2838,
      "Ġtelevision": 2839,
      "ev": 2840,
      "ias": 2841,
      "Ġisland": 2842,
      "umb": 2843,
      "ĠRich": 2844,
      "Ġhealth": 2845,
      "ĠCont": 2846,
      "ĠComp": 2847,
      "Ġyoung": 2848,
      "ĠAristotle": 2849,
      "ister": 2850,
      "ength": 2851,
      "cock": 2852,
      "odern": 2853,
      "Ġagricult": 2854,
      "Ġtechnology": 2855,
      "Ġconditions": 2856,
      "aughter": 2857,
      "ek": 2858,
      "âĪ": 2859,
      "Ġz": 2860,
      "Ġcele": 2861,
      "uture": 2862,
      "ĠGeneral": 2863,
      "Ġ2019": 2864,
      "Ġable": 2865,
      "Ġmetals": 2866,
      "Ġspecific": 2867,
      "Ġ1970": 2868,
      "Ġantisemit": 2869,
      "Ġmultip": 2870,
      "Ġsize": 2871,
      "rog": 2872,
      "ĠMany": 2873,
      "Ġmovement": 2874,
      "Ġwidely": 2875,
      "win": 2876,
      "Ġlo": 2877,
      "ĠCa": 2878,
      "chie": 2879,
      "Ġlearn": 2880,
      "Ġamount": 2881,
      "ixed": 2882,
      "Ġbaseball": 2883,
      "ios": 2884,
      "na": 2885,
      "Ġanthrop": 2886,
      "Ġbran": 2887,
      "Ġmight": 2888,
      "anding": 2889,
      "nTh": 2890,
      "Ġfamous": 2891,
      "Ġanimals": 2892,
      "Ġcorrespond": 2893,
      "Ġgrowth": 2894,
      "icles": 2895,
      "aged": 2896,
      "Ġuses": 2897,
      "ought": 2898,
      "Ġeconomy": 2899,
      "ĠMuseum": 2900,
      "Ġonce": 2901,
      "Ġassist": 2902,
      "Ġinstit": 2903,
      "men": 2904,
      "Ġlay": 2905,
      "ĠPark": 2906,
      "Ġadapt": 2907,
      "Ġ2005": 2908,
      "Ġcrew": 2909,
      "ĠAugustus": 2910,
      "ĠJewish": 2911,
      "Ġcities": 2912,
      "Ġconcent": 2913,
      "ĠFebruary": 2914,
      "Ġlittle": 2915,
      "Ġeast": 2916,
      "Ġvow": 2917,
      "acks": 2918,
      "ociation": 2919,
      "Ġsea": 2920,
      "Ġsuccessful": 2921,
      "ĠMy": 2922,
      "ĠGra": 2923,
      "ĠLa": 2924,
      "Ġ2020": 2925,
      "Ġchurch": 2926,
      "ourt": 2927,
      "go": 2928,
      "known": 2929,
      "Ã³": 2930,
      "Ġmid": 2931,
      "Ġdomin": 2932,
      "unar": 2933,
      "Ġcommer": 2934,
      "Ġproduce": 2935,
      "Ġpolic": 2936,
      "Ġdefined": 2937,
      "rowley": 2938,
      "Ġrequired": 2939,
      "Ġkilled": 2940,
      "22": 2941,
      "Al": 2942,
      "ĠGovern": 2943,
      "Ġ184": 2944,
      "ĠParis": 2945,
      "Ġconcern": 2946,
      "year": 2947,
      "Ġachie": 2948,
      "Ġnorm": 2949,
      "ĠMich": 2950,
      "ellig": 2951,
      "Ġcompet": 2952,
      "Ġfeatures": 2953,
      "ledge": 2954,
      "Ġradio": 2955,
      "ĠItaly": 2956,
      "Ġparticularly": 2957,
      "ĠInstitute": 2958,
      "Ġsqu": 2959,
      "Ġsource": 2960,
      "Ġapplic": 2961,
      "Ġcoach": 2962,
      "Ġleading": 2963,
      "ĠAthena": 2964,
      "Ġeducation": 2965,
      "ateg": 2966,
      "ects": 2967,
      "Ġincreasing": 2968,
      "Ġletter": 2969,
      "hel": 2970,
      "Ġsil": 2971,
      "Ġste": 2972,
      "Ġcommand": 2973,
      "Ġmechan": 2974,
      "ĠAdelaide": 2975,
      "Ġincreased": 2976,
      "Ġproposed": 2977,
      "auer": 2978,
      "Ġalphab": 2979,
      "oted": 2980,
      "ĠBo": 2981,
      "ĠList": 2982,
      "Ġ21": 2983,
      "obel": 2984,
      "uros": 2985,
      "nCh": 2986,
      "enna": 2987,
      "Ġeffects": 2988,
      "BA": 2989,
      "iences": 2990,
      "nJ": 2991,
      "Ġcost": 2992,
      "ĠAphrodite": 2993,
      "raction": 2994,
      "Ġdesigned": 2995,
      "Ġcelebr": 2996,
      "inary": 2997,
      "Ġangle": 2998,
      "Ġpri": 2999,
      "Ġhon": 3000,
      "omp": 3001,
      "urder": 3002,
      "ĠIts": 3003,
      "Ġaluminium": 3004,
      "Ġcompar": 3005,
      "Ġreading": 3006,
      "Ġtypes": 3007,
      "gin": 3008,
      "ires": 3009,
      "Ġborn": 3010,
      "ĠSy": 3011,
      "Ġstar": 3012,
      "ĠDes": 3013,
      "ograp": 3014,
      "Ġimm": 3015,
      "Ġwriter": 3016,
      "Ġsurv": 3017,
      "Ġfamil": 3018,
      "Ġcarbon": 3019,
      "ĠHenry": 3020,
      "Ġwent": 3021,
      "ocr": 3022,
      "uble": 3023,
      "Ġtypically": 3024,
      "ĠSwed": 3025,
      "ĠAtlantic": 3026,
      "gian": 3027,
      "eds": 3028,
      "Ġpast": 3029,
      "rael": 3030,
      "ĠPal": 3031,
      "Ġrock": 3032,
      "Ġwriters": 3033,
      "sych": 3034,
      "Ġself": 3035,
      "ico": 3036,
      "Ġmention": 3037,
      "owers": 3038,
      "openh": 3039,
      "ĠAlaska": 3040,
      "Ġallowed": 3041,
      "ĠAchilles": 3042,
      "Ġaverage": 3043,
      "Man": 3044,
      "ises": 3045,
      "isation": 3046,
      "iting": 3047,
      "Ġfa": 3048,
      "assi": 3049,
      "Ġpresident": 3050,
      "Ġprovided": 3051,
      "Ġearlier": 3052,
      "itchcock": 3053,
      "60": 3054,
      "lied": 3055,
      "Ġsouthern": 3056,
      "str": 3057,
      "uted": 3058,
      "Ġlarger": 3059,
      "ĠSpider": 3060,
      "Ġoccup": 3061,
      "Ġcultural": 3062,
      "Ġphysical": 3063,
      "Ġatoms": 3064,
      "Ġnucle": 3065,
      "ĠAfghanistan": 3066,
      "Ġtri": 3067,
      "ĠMost": 3068,
      "ĠAlc": 3069,
      "Ġmostly": 3070,
      "Ġplayed": 3071,
      "ĠIslam": 3072,
      "Ġconstruction": 3073,
      "Ġeventually": 3074,
      "Ġcampaign": 3075,
      "ning": 3076,
      "rich": 3077,
      "ising": 3078,
      "Ġinformation": 3079,
      "ĠFresnel": 3080,
      "ĠKh": 3081,
      "Ġcompounds": 3082,
      "ĠVal": 3083,
      "Ġmeet": 3084,
      "Ġhighest": 3085,
      "Ġmarket": 3086,
      "Ġcaused": 3087,
      "ributed": 3088,
      "Ġindustry": 3089,
      "osition": 3090,
      "Ġoutside": 3091,
      "Ġ50": 3092,
      "Ġconstit": 3093,
      "Ġbrought": 3094,
      "Ġlack": 3095,
      "ĠMoon": 3096,
      "ibility": 3097,
      "Ġclose": 3098,
      "Ġstudies": 3099,
      "ĠShah": 3100,
      "Ġmaint": 3101,
      "Ġatomic": 3102,
      "Ġhydrogen": 3103,
      "Ġterritory": 3104,
      "24": 3105,
      "oids": 3106,
      "Ġsources": 3107,
      "Ġdoc": 3108,
      "Ġdial": 3109,
      "ĠSam": 3110,
      "ĠIr": 3111,
      "Ġgold": 3112,
      "ĠHouse": 3113,
      "ĠEinstein": 3114,
      "Ġdise": 3115,
      "Ġworking": 3116,
      "Ġvariety": 3117,
      "selves": 3118,
      "met": 3119,
      "Ġclear": 3120,
      "ĠFl": 3121,
      "ĠOtt": 3122,
      "Ġpercent": 3123,
      "axim": 3124,
      "Ġfeature": 3125,
      "Ġmonths": 3126,
      "bell": 3127,
      "Ġfem": 3128,
      "ĠFirst": 3129,
      "ĠKar": 3130,
      "Ġaway": 3131,
      "ĠAOL": 3132,
      "Ġreached": 3133,
      "Ġcannot": 3134,
      "Ġamb": 3135,
      "Ġincrease": 3136,
      "Ġalkali": 3137,
      "isl": 3138,
      "itzer": 3139,
      "Ġwife": 3140,
      "Ġfarm": 3141,
      "roup": 3142,
      "Ġjud": 3143,
      "Ġtravel": 3144,
      "ĠGreece": 3145,
      "Ġderived": 3146,
      "Ġcell": 3147,
      "ĠSpe": 3148,
      "ĠIf": 3149,
      "ĠFre": 3150,
      "Ġexec": 3151,
      "Ġenvironment": 3152,
      "Ġnecess": 3153,
      "Ġregions": 3154,
      "Ġprovide": 3155,
      "Ġadded": 3156,
      "ĠSchool": 3157,
      "off": 3158,
      "Ġaster": 3159,
      "onic": 3160,
      "Ġput": 3161,
      "ĠCrowley": 3162,
      "ĠPeter": 3163,
      "Ġparty": 3164,
      "Ġquest": 3165,
      "Ġtransport": 3166,
      "ha": 3167,
      "ien": 3168,
      "Ġsaw": 3169,
      "Ġalways": 3170,
      "ips": 3171,
      "Ġammonia": 3172,
      "Ġspeak": 3173,
      "Ġprevent": 3174,
      "189": 3175,
      "ĠChristie": 3176,
      "Ġpersonal": 3177,
      "Ġbelief": 3178,
      "Ġtreatment": 3179,
      "Ġproblems": 3180,
      "Ġprobably": 3181,
      "ection": 3182,
      "Ġtrib": 3183,
      "Ġwave": 3184,
      "Ġred": 3185,
      "ference": 3186,
      "obal": 3187,
      "vey": 3188,
      "Ġbelow": 3189,
      "het": 3190,
      "Ġwhom": 3191,
      "ĠAnat": 3192,
      "Ġscreenwriter": 3193,
      "Ġalbum": 3194,
      "hing": 3195,
      "pro": 3196,
      "uals": 3197,
      "Ġanch": 3198,
      "empor": 3199,
      "oper": 3200,
      "iab": 3201,
      "nThere": 3202,
      "ibrary": 3203,
      "Ġwhether": 3204,
      "Åį": 3205,
      "ĠâĢ": 3206,
      "ĠMil": 3207,
      "Ġelectrons": 3208,
      "Ġscholars": 3209,
      "bed": 3210,
      "Ġaction": 3211,
      "Ġmission": 3212,
      "Ġeas": 3213,
      "Ġaircraft": 3214,
      "ĠAngola": 3215,
      "ĠWallace": 3216,
      "och": 3217,
      "oral": 3218,
      "Ġappo": 3219,
      "ĠSociety": 3220,
      "Ġdistinct": 3221,
      "Ġcreat": 3222,
      "asion": 3223,
      "ĠSm": 3224,
      "Ġstyle": 3225,
      "Ġconn": 3226,
      "Ġconfl": 3227,
      "ĠWe": 3228,
      "akh": 3229,
      "Ġthemselves": 3230,
      "Ġserved": 3231,
      "Ġcommonly": 3232,
      "Ġstarted": 3233,
      "Ġtemperature": 3234,
      "80": 3235,
      "su": 3236,
      "Ġten": 3237,
      "itor": 3238,
      "itar": 3239,
      "Ġwest": 3240,
      "Ġcompan": 3241,
      "Ġsubsequ": 3242,
      "ĠIII": 3243,
      "ĠArmenian": 3244,
      "Ġaward": 3245,
      "ĠMount": 3246,
      "ression": 3247,
      "Ġcenturies": 3248,
      "Ġappears": 3249,
      "Ġresults": 3250,
      "Ġhistorian": 3251,
      "Ġforeign": 3252,
      "ufact": 3253,
      "ffer": 3254,
      "Ġopt": 3255,
      "arc": 3256,
      "arct": 3257,
      "Ġhom": 3258,
      "ĠTuring": 3259,
      "ounter": 3260,
      "ĠJul": 3261,
      "ogen": 3262,
      "ribution": 3263,
      "Ġhistorical": 3264,
      "Ġbeginning": 3265,
      "Ġprimary": 3266,
      "Ġproducts": 3267,
      "ĠParty": 3268,
      "Ġprivate": 3269,
      "lem": 3270,
      "Ġdig": 3271,
      "Ġlines": 3272,
      "iable": 3273,
      "nAfter": 3274,
      "ĠAgripp": 3275,
      "Ġsmaller": 3276,
      "Ġrespons": 3277,
      "Ġarsenic": 3278,
      "million": 3279,
      "ngl": 3280,
      "anc": 3281,
      "Ġsem": 3282,
      "Ġsound": 3283,
      "Ġcross": 3284,
      "Ġfight": 3285,
      "ĠNobel": 3286,
      "nAccording": 3287,
      "Ġmanufact": 3288,
      "Ġ23": 3289,
      "openhauer": 3290,
      "Ġfuture": 3291,
      "rose": 3292,
      "Ġnet": 3293,
      "Ġrat": 3294,
      "ideo": 3295,
      "ĠReg": 3296,
      "urosawa": 3297,
      "irot": 3298,
      "Ġsens": 3299,
      "Ġbattle": 3300,
      "Ġtowards": 3301,
      "ether": 3302,
      "Ġgame": 3303,
      "ĠVir": 3304,
      "aching": 3305,
      "Ġneut": 3306,
      "Ġdirectly": 3307,
      "Ġtroops": 3308,
      "aff": 3309,
      "cular": 3310,
      "Ġir": 3311,
      "Ġ2004": 3312,
      "Ġmyth": 3313,
      "Ġbehav": 3314,
      "Ġgreater": 3315,
      "Ġcitiz": 3316,
      "75": 3317,
      "Ġice": 3318,
      "Ġalt": 3319,
      "Ġplant": 3320,
      "Ġarr": 3321,
      "cont": 3322,
      "oney": 3323,
      "Ġmatter": 3324,
      "Ġidea": 3325,
      "Ġpurp": 3326,
      "Ġillust": 3327,
      "mar": 3328,
      "ĠTr": 3329,
      "ĠĠĠ": 3330,
      "ĠArg": 3331,
      "Ġspirit": 3332,
      "insberg": 3333,
      "ashington": 3334,
      "Ġannounced": 3335,
      "Ġaxi": 3336,
      "Ġapproximately": 3337,
      "Ġspoken": 3338,
      "nK": 3339,
      "Ġcry": 3340,
      "ĠIsrael": 3341,
      "Ġmanager": 3342,
      "be": 3343,
      "Ġsay": 3344,
      "Ġdaughter": 3345,
      "ĠSim": 3346,
      "ĠLou": 3347,
      "Ġteam": 3348,
      "Ġrecent": 3349,
      "Ġaccord": 3350,
      "Ġhighly": 3351,
      "Ġrequire": 3352,
      "ĠBCE": 3353,
      "ĠGeorg": 3354,
      "Ġlikely": 3355,
      "rev": 3356,
      "Ġemer": 3357,
      "Ġlength": 3358,
      "ĠSer": 3359,
      "ĠMe": 3360,
      "ĠNA": 3361,
      "illa": 3362,
      "ĠAbra": 3363,
      "ĠRussia": 3364,
      "Ġlimited": 3365,
      "Ġchanges": 3366,
      "Ġur": 3367,
      "Ġlatter": 3368,
      "ĠMart": 3369,
      "ĠHitchcock": 3370,
      "ighb": 3371,
      "Ġsoft": 3372,
      "Ġproblem": 3373,
      "âĪĴ": 3374,
      "Ġfamilies": 3375,
      "well": 3376,
      "erc": 3377,
      "Ġwestern": 3378,
      "ĠMary": 3379,
      "ĠIm": 3380,
      "Ġsex": 3381,
      "Ġobjects": 3382,
      "can": 3383,
      "Ġcrick": 3384,
      "ĠSu": 3385,
      "Ġmole": 3386,
      "Ġ2003": 3387,
      "Ġservices": 3388,
      "Ġdetail": 3389,
      "ĠAlberta": 3390,
      "hood": 3391,
      "atives": 3392,
      "icated": 3393,
      "Ġinj": 3394,
      "asi": 3395,
      "ĠMiddle": 3396,
      "ĠDem": 3397,
      "Ġrank": 3398,
      "ills": 3399,
      "Ġtherefore": 3400,
      "ĠBritain": 3401,
      "Ġmajority": 3402,
      "unicip": 3403,
      "Ã¨": 3404,
      "ĠMac": 3405,
      "Ġgive": 3406,
      "alled": 3407,
      "ously": 3408,
      "ĠAnn": 3409,
      "Ġ185": 3410,
      "Ġrail": 3411,
      "Ġ40": 3412,
      "Ġobt": 3413,
      "ĠĠĠĠĠĠĠĠ": 3414,
      "ĠQu": 3415,
      "sky": 3416,
      "ream": 3417,
      "ĠAk": 3418,
      "Ġstage": 3419,
      "Ġdiscuss": 3420,
      "Ġpainter": 3421,
      "west": 3422,
      "Ġtable": 3423,
      "Ġband": 3424,
      "Ġtoo": 3425,
      "ĠTrans": 3426,
      "\\\"\\": 3427,
      "ĠMet": 3428,
      "ĠMiss": 3429,
      "ĠIran": 3430,
      "Ġ1999": 3431,
      "Ġearth": 3432,
      "Ġparticip": 3433,
      "Ġleader": 3434,
      "Ġseparate": 3435,
      "Ġcalcul": 3436,
      "inent": 3437,
      "aring": 3438,
      "ĠAh": 3439,
      "ĠCourt": 3440,
      "Ġ2001": 3441,
      "ĠAda": 3442,
      "Ġdiscover": 3443,
      "ederal": 3444,
      "Ġcomplete": 3445,
      "Ġsymbol": 3446,
      "Ġded": 3447,
      "Ġthous": 3448,
      "iding": 3449,
      "ĠMark": 3450,
      "ĠRoyal": 3451,
      "airs": 3452,
      "Ġsociety": 3453,
      "ĠMuslim": 3454,
      "Ġpotential": 3455,
      "ores": 3456,
      "iles": 3457,
      "amm": 3458,
      "ĠRand": 3459,
      "ibly": 3460,
      "Ġindependence": 3461,
      "Ġestimated": 3462,
      "23": 3463,
      "Ġtoday": 3464,
      "ĠEastern": 3465,
      "Ġ183": 3466,
      "ressed": 3467,
      "ĠAmb": 3468,
      "Ġtransm": 3469,
      "Ġreturned": 3470,
      "Ġliterature": 3471,
      "ns": 3472,
      "Ġtend": 3473,
      "inus": 3474,
      "Ġsac": 3475,
      "Ġfell": 3476,
      "Ġbene": 3477,
      "Ġmedia": 3478,
      "Ġmakes": 3479,
      "ented": 3480,
      "Ġexpect": 3481,
      "Ġchoice": 3482,
      "Ġspread": 3483,
      "186": 3484,
      "Ġpoints": 3485,
      "iques": 3486,
      "Ġsuggested": 3487,
      "Ġcareer": 3488,
      "Ġadopted": 3489,
      "70": 3490,
      "ares": 3491,
      "nV": 3492,
      "tical": 3493,
      "urches": 3494,
      "Ġstated": 3495,
      "Ġconqu": 3496,
      "Ġunit": 3497,
      "igned": 3498,
      "Ġbetter": 3499,
      "ĠNewton": 3500,
      "Ġinfluenced": 3501,
      "Ġdemon": 3502,
      "Ġmethods": 3503,
      "nglish": 3504,
      "wide": 3505,
      "Ġprote": 3506,
      "ĠSte": 3507,
      "Ġassum": 3508,
      "Ġautom": 3509,
      "Ġappeared": 3510,
      "ĠFrank": 3511,
      "Ġnearly": 3512,
      "Ġoriginally": 3513,
      "Ġindependent": 3514,
      "Ġscientific": 3515,
      "Ġrelatively": 3516,
      "ĠAnatol": 3517,
      "gely": 3518,
      "ki": 3519,
      "ya": 3520,
      "cted": 3521,
      "Ġnit": 3522,
      "ĠBut": 3523,
      "Ġacqu": 3524,
      "Ġprec": 3525,
      "ropol": 3526,
      "Ġsett": 3527,
      "Ġpractice": 3528,
      "ĠEgyptian": 3529,
      "aught": 3530,
      "ĠPoirot": 3531,
      "Ġalgorithm": 3532,
      "BBA": 3533,
      "based": 3534,
      "nUn": 3535,
      "xiety": 3536,
      "Ġcode": 3537,
      "cean": 3538,
      "ĠOld": 3539,
      "ĠKurosawa": 3540,
      "izing": 3541,
      "Ġtrue": 3542,
      "ynast": 3543,
      "Ġchemical": 3544,
      "Ġspect": 3545,
      "Ġlonger": 3546,
      "Ġminor": 3547,
      "iated": 3548,
      "Ġlook": 3549,
      "idge": 3550,
      "\\\"),": 3551,
      "ĠMal": 3552,
      "Ġgrad": 3553,
      "uman": 3554,
      "Ġ2021": 3555,
      "Ġneighb": 3556,
      "Ġexperience": 3557,
      "ĠAntarct": 3558,
      "ĠCentral": 3559,
      "Ġera": 3560,
      "Ġlevels": 3561,
      "pirin": 3562,
      "Ġalchem": 3563,
      "ĠRichard": 3564,
      "inian": 3565,
      "ĠDel": 3566,
      "Ġcome": 3567,
      "uba": 3568,
      "ĠAgassi": 3569,
      "iament": 3570,
      "Ġabortion": 3571,
      "aph": 3572,
      "ato": 3573,
      "icted": 3574,
      "Ġever": 3575,
      "ĠSince": 3576,
      "ament": 3577,
      "ĠWashington": 3578,
      "artment": 3579,
      "ĠAndor": 3580,
      "Ġperformed": 3581,
      "Ġmeasure": 3582,
      "Ġdefinition": 3583,
      "Ġmale": 3584,
      "ĠSl": 3585,
      "ĠCouncil": 3586,
      "ĠDep": 3587,
      "ĠStud": 3588,
      "anguage": 3589,
      "Ġclaimed": 3590,
      "40": 3591,
      "aly": 3592,
      "rol": 3593,
      "eles": 3594,
      "Ġreaction": 3595,
      "ĠTro": 3596,
      "iff": 3597,
      "riage": 3598,
      "Ġshown": 3599,
      "188": 3600,
      "Ġrace": 3601,
      "Ġlegal": 3602,
      "ĠMichael": 3603,
      ";\\": 3604,
      "nic": 3605,
      "rd": 3606,
      "orial": 3607,
      "itt": 3608,
      "Ġcontains": 3609,
      "Ġinteg": 3610,
      "nOther": 3611,
      "Ġ1950": 3612,
      "Ġbecomes": 3613,
      "ĠPortug": 3614,
      "Ġcommercial": 3615,
      "27": 3616,
      "view": 3617,
      "Ġsitu": 3618,
      "ĠGl": 3619,
      "iform": 3620,
      "uda": 3621,
      "hesis": 3622,
      "Ġremov": 3623,
      "ĠAarhus": 3624,
      "life": 3625,
      "uke": 3626,
      "Ġsense": 3627,
      "Ġeight": 3628,
      "ĠBr": 3629,
      "nAt": 3630,
      "Ġregular": 3631,
      "Ġguitar": 3632,
      "Ġreplaced": 3633,
      "ĠRevolution": 3634,
      "ĠPrize": 3635,
      "me": 3636,
      "Ġwall": 3637,
      "lege": 3638,
      "Ġstep": 3639,
      "aker": 3640,
      "ĠKore": 3641,
      "Ġlargely": 3642,
      "Ġremain": 3643,
      "Ġimplement": 3644,
      "ĠIsland": 3645,
      "Ġmainly": 3646,
      "Ġmachine": 3647,
      "oe": 3648,
      "Ġwind": 3649,
      "iance": 3650,
      "ĠHigh": 3651,
      "Ġwhite": 3652,
      "Ġvill": 3653,
      "ĠNor": 3654,
      "elled": 3655,
      "Ġkind": 3656,
      "Ġenough": 3657,
      "Ġcreate": 3658,
      "ennis": 3659,
      "Ġresulting": 3660,
      "Ġsolution": 3661,
      "Ġreligion": 3662,
      "Ġproperty": 3663,
      "rus": 3664,
      "Ġhapp": 3665,
      "Ġ()": 3666,
      "lymp": 3667,
      "Ġvir": 3668,
      "Ġrule": 3669,
      "Ġplants": 3670,
      "Ġwhole": 3671,
      "Ġanimation": 3672,
      "ply": 3673,
      "ror": 3674,
      "ss": 3675,
      "isions": 3676,
      "icine": 3677,
      "ĠGinsberg": 3678,
      "iforn": 3679,
      "Ġexhib": 3680,
      "Ġmouth": 3681,
      "Ġresist": 3682,
      "78": 3683,
      "Ġsoul": 3684,
      "Ġconver": 3685,
      "Ġintellig": 3686,
      "Ġknowledge": 3687,
      "Ġfocus": 3688,
      "actions": 3689,
      "arent": 3690,
      "Ġour": 3691,
      "ĠTest": 3692,
      "Ġsuffer": 3693,
      "Ġpoor": 3694,
      "ĠAustrian": 3695,
      "di": 3696,
      "liament": 3697,
      "yg": 3698,
      "eral": 3699,
      "alle": 3700,
      "itation": 3701,
      "ĠAPL": 3702,
      "olf": 3703,
      "Ġcompon": 3704,
      "isms": 3705,
      "Ġdiss": 3706,
      "Ġnumerous": 3707,
      "Ġsurround": 3708,
      "anned": 3709,
      "ecause": 3710,
      "Ġbasis": 3711,
      "ĠCommun": 3712,
      "ifornia": 3713,
      "cast": 3714,
      "ni": 3715,
      "aled": 3716,
      "itors": 3717,
      "Ġhyp": 3718,
      "ĠMos": 3719,
      "Ġplaced": 3720,
      "ieval": 3721,
      "Ġ26": 3722,
      "Ġpresence": 3723,
      "Ġcollection": 3724,
      "Ġobserved": 3725,
      "Ġphilosopher": 3726,
      "Ġmultiple": 3727,
      ",\\\"": 3728,
      ".)": 3729,
      "ech": 3730,
      "heast": 3731,
      "Ġsite": 3732,
      "Ġpsych": 3733,
      "Ġbond": 3734,
      "Ġlunar": 3735,
      "change": 3736,
      "antine": 3737,
      "ension": 3738,
      "Ġweight": 3739,
      "Ġmedical": 3740,
      "Ã¡n": 3741,
      "Ġinvolved": 3742,
      "Ġalphabet": 3743,
      "47": 3744,
      "Am": 3745,
      "Ġion": 3746,
      "Ġaud": 3747,
      "ero": 3748,
      "Ġhero": 3749,
      "Ġformal": 3750,
      "Ġ2002": 3751,
      "Ġassault": 3752,
      "Ġemph": 3753,
      "Ġemperor": 3754,
      "ĠQue": 3755,
      "ĠCalifornia": 3756,
      "aling": 3757,
      "Ġcover": 3758,
      "ĠOlymp": 3759,
      "nFor": 3760,
      "Ġ1930": 3761,
      "Ġrepresented": 3762,
      "Ġbusinessman": 3763,
      "ographer": 3764,
      "28": 3765,
      "Ġpp": 3766,
      "Ġreact": 3767,
      "Ġey": 3768,
      "achen": 3769,
      "Ġsequ": 3770,
      "Ġyet": 3771,
      "Ġdisp": 3772,
      "Ġrap": 3773,
      "Ġrare": 3774,
      "Ġantim": 3775,
      "ĠSchopenhauer": 3776,
      "Ġestablish": 3777,
      "ĠBlack": 3778,
      "Ġaccepted": 3779,
      "Ġpaper": 3780,
      "Ġrisk": 3781,
      "ĠIrish": 3782,
      "Ġguitarist": 3783,
      "90": 3784,
      "avery": 3785,
      "dess": 3786,
      "ging": 3787,
      "Ġol": 3788,
      "anded": 3789,
      "Ġcontain": 3790,
      "rents": 3791,
      "Ġoffice": 3792,
      "Ġdistingu": 3793,
      "Ġdeaths": 3794,
      "ynam": 3795,
      "iations": 3796,
      "enz": 3797,
      "Ġche": 3798,
      "Ġpron": 3799,
      "olute": 3800,
      "ership": 3801,
      "Ġconv": 3802,
      "opes": 3803,
      "Ġpeace": 3804,
      "nDuring": 3805,
      "Ġequal": 3806,
      "Ġcomplet": 3807,
      "Ġrecorded": 3808,
      "Ġschools": 3809,
      "Ġchemist": 3810,
      "Ġvictory": 3811,
      "ients": 3812,
      "ĠABBA": 3813,
      "ĠTer": 3814,
      "Ġask": 3815,
      "ĠLaw": 3816,
      "Ġvia": 3817,
      "Ġprovince": 3818,
      "Ġclassical": 3819,
      "unt": 3820,
      "ĠBab": 3821,
      "ĠEr": 3822,
      "thod": 3823,
      "estival": 3824,
      "wood": 3825,
      "ĠMarc": 3826,
      "vention": 3827,
      "Ġmarried": 3828,
      "ready": 3829,
      "Ġfriends": 3830,
      "Ġantisemitism": 3831,
      "emporary": 3832,
      "edy": 3833,
      "Ġfront": 3834,
      "Ġeastern": 3835,
      "Ġlab": 3836,
      "emn": 3837,
      "Ġstories": 3838,
      "uments": 3839,
      "ĠLibrary": 3840,
      "ĠDar": 3841,
      "Ġnoted": 3842,
      "Ġplaces": 3843,
      "ports": 3844,
      "Ġ1998": 3845,
      "Ġ1988": 3846,
      "Ġblack": 3847,
      "Ġbasic": 3848,
      "Ġastronaut": 3849,
      "Ġissues": 3850,
      "Ġdestroy": 3851,
      "inated": 3852,
      "Ġpen": 3853,
      "Ġnation": 3854,
      "iant": 3855,
      "Ġsoon": 3856,
      "nHistory": 3857,
      "Ġhumans": 3858,
      "ĠAlbania": 3859,
      "Ġbenef": 3860,
      "ship": 3861,
      "zil": 3862,
      "Ġtar": 3863,
      "Ġop": 3864,
      "oring": 3865,
      "orks": 3866,
      "ĠAward": 3867,
      "Ġmic": 3868,
      "ĠBarb": 3869,
      "Ġvideo": 3870,
      "ĠJose": 3871,
      "nAm": 3872,
      "ĠOrder": 3873,
      "ĠAbraham": 3874,
      "26": 3875,
      "icenna": 3876,
      "Ġreject": 3877,
      "ĠNorthern": 3878,
      "Ġriver": 3879,
      "Ġunits": 3880,
      "Ġarran": 3881,
      "aceae": 3882,
      "Ġcharge": 3883,
      "Ġconstruct": 3884,
      "ĠPrime": 3885,
      "Ġideas": 3886,
      "ĠScottish": 3887,
      "ĠLouis": 3888,
      "field": 3889,
      "Ã§": 3890,
      "Ġcer": 3891,
      "Ġfire": 3892,
      "ĠBro": 3893,
      "Ġalready": 3894,
      "Ġchurches": 3895,
      "Ġclimate": 3896,
      "ublican": 3897,
      "curity": 3898,
      "Ġtemple": 3899,
      "asket": 3900,
      "Ġadminist": 3901,
      "Ġmountain": 3902,
      "ĠSpeer": 3903,
      "Ġcompanies": 3904,
      "Ġwide": 3905,
      "ĠAj": 3906,
      "ĠSar": 3907,
      "ĠDan": 3908,
      "ĠJean": 3909,
      "Ġcompared": 3910,
      "Ġimmedi": 3911,
      "Ġworked": 3912,
      "ii": 3913,
      "part": 3914,
      "Ġx": 3915,
      "ishes": 3916,
      "itan": 3917,
      "Ġbound": 3918,
      "ĠSat": 3919,
      "ĠRom": 3920,
      "ĠLabor": 3921,
      "ĠFranc": 3922,
      "Ġpolicy": 3923,
      "ĠAgrippina": 3924,
      "aric": 3925,
      "Ġdom": 3926,
      "Ġdipl": 3927,
      "Ġreve": 3928,
      "ĠGrand": 3929,
      "ĠFrom": 3930,
      "undred": 3931,
      "Ġplays": 3932,
      "nSt": 3933,
      "Ġ1992": 3934,
      "Ġflu": 3935,
      "ographic": 3936,
      "Ġcommunic": 3937,
      "Ġdivided": 3938,
      "Ġfriend": 3939,
      "Ġfigure": 3940,
      "Ġanxiety": 3941,
      "Ġpay": 3942,
      "leg": 3943,
      "lying": 3944,
      "avy": 3945,
      "cles": 3946,
      "astic": 3947,
      "Ġcenter": 3948,
      "Ġflight": 3949,
      "Ġtechniques": 3950,
      "Ġgoddess": 3951,
      "which": 3952,
      "33": 3953,
      "In": 3954,
      "ext": 3955,
      "ij": 3956,
      "mark": 3957,
      "ĠÎ": 3958,
      "itte": 3959,
      "Ġmiss": 3960,
      "Ġdram": 3961,
      "Ġlived": 3962,
      "Ġlove": 3963,
      "aches": 3964,
      "perial": 3965,
      "phalt": 3966,
      "ector": 3967,
      "Ġcontrast": 3968,
      "ferred": 3969,
      "reng": 3970,
      "Ġdisplay": 3971,
      "Ġquick": 3972,
      "Ġneeded": 3973,
      "Ġissue": 3974,
      "Ġiron": 3975,
      "Ġtaking": 3976,
      "Ġnar": 3977,
      "ago": 3978,
      "Ġvan": 3979,
      "rief": 3980,
      "Ġcomposed": 3981,
      "Ġpolar": 3982,
      "Ġelection": 3983,
      "Ġsupported": 3984,
      "stitution": 3985,
      "Ġmathematician": 3986,
      "ES": 3987,
      "with": 3988,
      "Ġwood": 3989,
      "omers": 3990,
      "ils": 3991,
      "Ġaspect": 3992,
      "Ġdeep": 3993,
      "uge": 3994,
      "ĠUK": 3995,
      "ovsky": 3996,
      "ĠVen": 3997,
      "Ġyou": 3998,
      "ieties": 3999,
      "Ġsigned": 4000,
      "Ġeffective": 4001,
      "ĠPersian": 4002,
      "where": 4003,
      "inces": 4004,
      "era": 4005,
      "ita": 4006,
      "Ġcust": 4007,
      "Ġhous": 4008,
      "ĠSouthern": 4009,
      "Ġrot": 4010,
      "Ġsets": 4011,
      "ĠProt": 4012,
      "ĠClass": 4013,
      "Ġbreak": 4014,
      "Ġconflict": 4015,
      "thodox": 4016,
      "Ġult": 4017,
      "inem": 4018,
      "atch": 4019,
      "Ġbit": 4020,
      "Ġ27": 4021,
      "Ġsubs": 4022,
      "arsh": 4023,
      "azing": 4024,
      "Ġvalues": 4025,
      "Ġstatus": 4026,
      "Ġapproach": 4027,
      "Ġpattern": 4028,
      "Ġindustrial": 4029,
      "fficient": 4030,
      "Ġsaf": 4031,
      "Ġbar": 4032,
      "Ġhar": 4033,
      "olved": 4034,
      "ĠSan": 4035,
      "ĠMin": 4036,
      "osis": 4037,
      "Ġconclud": 4038,
      "Ġorb": 4039,
      "Ġveh": 4040,
      "Ġsym": 4041,
      "Ġ1968": 4042,
      "Ġparticles": 4043,
      "Ġglobal": 4044,
      "Ġcondition": 4045,
      "Ġthings": 4046,
      "Ġdead": 4047,
      "Ġdecre": 4048,
      "ested": 4049,
      "Ġactive": 4050,
      "Ġ1991": 4051,
      "Ġ1995": 4052,
      "Ġ1996": 4053,
      "Ġstudents": 4054,
      "Ġfunctions": 4055,
      "Ġabsolute": 4056,
      "Ġsynt": 4057,
      "ĠAlgeria": 4058,
      "Ġfaith": 4059,
      "Ġquestion": 4060,
      "ĠJoseph": 4061,
      "29": 4062,
      "oir": 4063,
      "onse": 4064,
      "Ġdon": 4065,
      "urd": 4066,
      "ulpt": 4067,
      "igen": 4068,
      "berde": 4069,
      "nPh": 4070,
      "Ġlegisl": 4071,
      "ĠAtlas": 4072,
      "ĠConfederate": 4073,
      "Ġinterpret": 4074,
      "Ġpressure": 4075,
      "Ġcitizens": 4076,
      "48": 4077,
      "cks": 4078,
      "aland": 4079,
      "arly": 4080,
      "icit": 4081,
      "icism": 4082,
      "elt": 4083,
      "Ġget": 4084,
      "earch": 4085,
      "Ġ1997": 4086,
      "Ġsettle": 4087,
      "ĠAges": 4088,
      "Ġauthority": 4089,
      "ĠByz": 4090,
      "Ġ#": 4091,
      "Ġupp": 4092,
      "Ġwant": 4093,
      "Ġloss": 4094,
      "Ġforced": 4095,
      "ĠBas": 4096,
      "osing": 4097,
      "ĠGre": 4098,
      "abit": 4099,
      "Ġability": 4100,
      "Ġcentre": 4101,
      "Ġapplied": 4102,
      "Ġ1977": 4103,
      "ĠSpace": 4104,
      "Ġanimal": 4105,
      "haps": 4106,
      "such": 4107,
      "Ġ;": 4108,
      "ering": 4109,
      "anks": 4110,
      "Ġpric": 4111,
      "ĠAachen": 4112,
      "imens": 4113,
      "Ġseason": 4114,
      "ultan": 4115,
      "izes": 4116,
      "Ġ28": 4117,
      "overty": 4118,
      "ampions": 4119,
      "Ġpreserv": 4120,
      "Ġdistance": 4121,
      "Ġcompleted": 4122,
      "Ġdefeated": 4123,
      "Ġdocument": 4124,
      "oor": 4125,
      "atine": 4126,
      "Ġdate": 4127,
      "ĠCur": 4128,
      "Ġisot": 4129,
      "ĠHistor": 4130,
      "Ġstreng": 4131,
      "ĠWil": 4132,
      "pped": 4133,
      "Ġ60": 4134,
      "Ġsummer": 4135,
      "ĠSystem": 4136,
      "asiatic": 4137,
      "onian": 4138,
      "ĠAle": 4139,
      "asons": 4140,
      "ida": 4141,
      "ĠLord": 4142,
      "ĠThus": 4143,
      "uck": 4144,
      "Ġracing": 4145,
      "Ġsimply": 4146,
      "Ġrespectively": 4147,
      "Ġdegree": 4148,
      "Ġemphas": 4149,
      "rat": 4150,
      "Ġtakes": 4151,
      "Ġfiction": 4152,
      "Ġdraw": 4153,
      "ĠHam": 4154,
      "Ġstri": 4155,
      "ests": 4156,
      "Ġconsum": 4157,
      "Ġdoct": 4158,
      "Ġpositive": 4159,
      "Ġsimple": 4160,
      "Ġdecision": 4161,
      "Ġoccurs": 4162,
      "ĠZealand": 4163,
      "39": 4164,
      "bl": 4165,
      "more": 4166,
      "Ġinn": 4167,
      "rogen": 4168,
      "Ġdone": 4169,
      "uls": 4170,
      "ĠPet": 4171,
      "ĠHel": 4172,
      "ump": 4173,
      "Ġrise": 4174,
      "rying": 4175,
      "Ġcontact": 4176,
      "Ġconson": 4177,
      "Ġ1994": 4178,
      "ĠSecond": 4179,
      "Ġprimarily": 4180,
      "ĠPolish": 4181,
      "Ġturned": 4182,
      "Ġinitial": 4183,
      "Ġearliest": 4184,
      "Ġjoined": 4185,
      "Ġassembly": 4186,
      "Ġcricketer": 4187,
      "ground": 4188,
      "oz": 4189,
      "Ġphen": 4190,
      "Ġlabor": 4191,
      "Ġ1920": 4192,
      "odium": 4193,
      "ĠNic": 4194,
      "Ġseven": 4195,
      "Ġamino": 4196,
      "aeus": 4197,
      "Ġelected": 4198,
      "nFurther": 4199,
      "Ġprogramming": 4200,
      "comp": 4201,
      "Ġbuildings": 4202,
      "Ġstructures": 4203,
      "ĠTurkey": 4204,
      "Ġquantum": 4205,
      "Ġdisease": 4206,
      "ĠAjax": 4207,
      "76": 4208,
      "hat": 4209,
      "Ġâ": 4210,
      "Ġinternal": 4211,
      "Ġhours": 4212,
      "ĠSun": 4213,
      "adian": 4214,
      "Ġvon": 4215,
      "ateur": 4216,
      "Ġ29": 4217,
      "Ġdirection": 4218,
      "Ġ1940": 4219,
      "Ġserious": 4220,
      "Ġpossess": 4221,
      "Ġoperations": 4222,
      "Ġgods": 4223,
      "ĠCenter": 4224,
      "Ġidentified": 4225,
      "Ġindividuals": 4226,
      "Ġprior": 4227,
      "Ġappointed": 4228,
      "ĠVirgin": 4229,
      "Ġillustr": 4230,
      "asketball": 4231,
      "',": 4232,
      "):": 4233,
      "ena": 4234,
      "enes": 4235,
      "roasiatic": 4236,
      "Ġmurder": 4237,
      "ĠMass": 4238,
      "Ġsection": 4239,
      "ective": 4240,
      "Ġlocation": 4241,
      "Ġdecided": 4242,
      "Ġrefers": 4243,
      "Ġreflect": 4244,
      "Ġequival": 4245,
      "rison": 4246,
      "Ġincor": 4247,
      "Ġexistence": 4248,
      "Ġsoldier": 4249,
      "Ġkeep": 4250,
      "Ġinh": 4251,
      "Ġreform": 4252,
      "Ġliqu": 4253,
      "ĠLov": 4254,
      "ĠFilm": 4255,
      "illed": 4256,
      "phib": 4257,
      "Ġ1969": 4258,
      "ĠSpain": 4259,
      "ĠAbb": 4260,
      "Ġimpact": 4261,
      "'t": 4262,
      "36": 4263,
      "cest": 4264,
      "ying": 4265,
      "ygen": 4266,
      "ese": 4267,
      "Ġbishop": 4268,
      "ellect": 4269,
      "olk": 4270,
      "Ġlif": 4271,
      "ĠBur": 4272,
      "iac": 4273,
      "ĠJust": 4274,
      "Ġund": 4275,
      "Ġcontribut": 4276,
      "ĠAmericans": 4277,
      "Ġround": 4278,
      "Ġweap": 4279,
      "Ġartist": 4280,
      "Ġphysic": 4281,
      "ĠAzerbaijani": 4282,
      "Ġreduced": 4283,
      "ĠTurkish": 4284,
      "Ġnuclear": 4285,
      "ĠPhilip": 4286,
      "ĠBrazil": 4287,
      "hi": 4288,
      "rical": 4289,
      "rine": 4290,
      "atal": 4291,
      "Ġcut": 4292,
      "Ġmunicip": 4293,
      "use": 4294,
      "Ġthreat": 4295,
      "ully": 4296,
      "Ġheart": 4297,
      "Ġrug": 4298,
      "ĠOl": 4299,
      "ĠAnother": 4300,
      "Ġadult": 4301,
      "orders": 4302,
      "Ġsculpt": 4303,
      "Ġconsists": 4304,
      "obs": 4305,
      "Ġconstant": 4306,
      "Ġbehind": 4307,
      "Ġbecoming": 4308,
      "Ġburied": 4309,
      "Ġanthropology": 4310,
      "Ġmentioned": 4311,
      "Ġanchor": 4312,
      "ynasty": 4313,
      "nik": 4314,
      "Ġcateg": 4315,
      "ĠAI": 4316,
      "olar": 4317,
      "ĠSaint": 4318,
      "Ġstable": 4319,
      "anda": 4320,
      "ĠInter": 4321,
      "ensus": 4322,
      "Ġ1976": 4323,
      "ĠDef": 4324,
      "Ġcombined": 4325,
      "Ġadditional": 4326,
      "ĠAssociation": 4327,
      "ocratic": 4328,
      "Ġrapid": 4329,
      "45": 4330,
      "light": 4331,
      "rative": 4332,
      "ĠAut": 4333,
      "Ġthink": 4334,
      "idents": 4335,
      "ulations": 4336,
      "ada": 4337,
      "ĠMat": 4338,
      "ĠMore": 4339,
      "Ġgames": 4340,
      "ĠGold": 4341,
      "ĠLuc": 4342,
      "ĠDon": 4343,
      "Ġvary": 4344,
      "Ġunc": 4345,
      "Ġens": 4346,
      "Ġ1993": 4347,
      "Ġwritings": 4348,
      "ĠScience": 4349,
      "Ġshows": 4350,
      "Ġargued": 4351,
      "Ġforest": 4352,
      "board": 4353,
      "Ġregarded": 4354,
      "Ġprofessional": 4355,
      "pr": 4356,
      "ini": 4357,
      "aranth": 4358,
      "Ġborder": 4359,
      "ĠTra": 4360,
      "ĠTreat": 4361,
      "Ġec": 4362,
      "ĠSen": 4363,
      "ĠBest": 4364,
      "ĠHall": 4365,
      "Ġexc": 4366,
      "Ġ178": 4367,
      "Ġauthors": 4368,
      "Ġ1945": 4369,
      "Ġblood": 4370,
      "ĠEmperor": 4371,
      "Ġslow": 4372,
      "Ġnovels": 4373,
      "Ġdeclared": 4374,
      "ĠAvicenna": 4375,
      "Ġsquare": 4376,
      "Ġspiritual": 4377,
      "ĠAnatolia": 4378,
      "Ġdiplom": 4379,
      "Ġupper": 4380,
      "79": 4381,
      "NA": 4382,
      "Ġanime": 4383,
      "Ġfrag": 4384,
      "Ġreign": 4385,
      "ĠSal": 4386,
      "Ġsecret": 4387,
      "see": 4388,
      "nAg": 4389,
      "acter": 4390,
      "Ġtex": 4391,
      "Ġapparent": 4392,
      "Ġdescript": 4393,
      "Ġinscript": 4394,
      "Ġbelieve": 4395,
      "ĠCarl": 4396,
      "ĠCollege": 4397,
      "Ġcauses": 4398,
      "Ġtranslated": 4399,
      "Ġinvestig": 4400,
      "ĠIslamic": 4401,
      "Ar": 4402,
      "fred": 4403,
      "ka": 4404,
      "kara": 4405,
      "nost": 4406,
      "anced": 4407,
      "ancial": 4408,
      "Ġhundred": 4409,
      "ĠEv": 4410,
      "Ġexamples": 4411,
      "pha": 4412,
      "arkovsky": 4413,
      "Ġattract": 4414,
      "Ġelectric": 4415,
      "nHe": 4416,
      "Ġmuseum": 4417,
      "Ġactivity": 4418,
      "Ġfigures": 4419,
      "ĠTechn": 4420,
      "Ġoffered": 4421,
      "01": 4422,
      "band": 4423,
      "eff": 4424,
      "nU": 4425,
      "oud": 4426,
      "Ġdam": 4427,
      "ĠTV": 4428,
      "ĠSum": 4429,
      "Ġstation": 4430,
      "Ġstars": 4431,
      "ĠEp": 4432,
      "Ġcomment": 4433,
      "Ġshare": 4434,
      "gles": 4435,
      "Ġ1986": 4436,
      "Ġ1974": 4437,
      "Ġcarried": 4438,
      "Ġresponse": 4439,
      "ospital": 4440,
      "Ġnegative": 4441,
      "ĠAndorra": 4442,
      "Ġtexts": 4443,
      "iot": 4444,
      "wright": 4445,
      "itable": 4446,
      "iled": 4447,
      "Ġbey": 4448,
      "ĠBen": 4449,
      "ĠTheir": 4450,
      "ĠNaz": 4451,
      "ables": 4452,
      "ĠUN": 4453,
      "ĠKhan": 4454,
      "ologists": 4455,
      "ollowing": 4456,
      "Ġtraining": 4457,
      "azine": 4458,
      "Ġmarriage": 4459,
      "Ġdriver": 4460,
      "bridge": 4461,
      "Ġannual": 4462,
      "Ġactivities": 4463,
      "Ġexpressed": 4464,
      "Ġfailed": 4465,
      "Ġwoman": 4466,
      "Ġmom": 4467,
      "olid": 4468,
      "ĠMa": 4469,
      "Ġnotes": 4470,
      "cons": 4471,
      "ensity": 4472,
      "Ġevolution": 4473,
      "Ġ1989": 4474,
      "Ġ1973": 4475,
      "Ġmatch": 4476,
      "Ġresulted": 4477,
      "Ġcryst": 4478,
      "ĠNASA": 4479,
      "Ġsoftware": 4480,
      "ittee": 4481,
      "aper": 4482,
      "Ä±": 4483,
      "aria": 4484,
      "icts": 4485,
      "ĠAberde": 4486,
      "ĠCE": 4487,
      "osen": 4488,
      "ĠHung": 4489,
      "Ġseem": 4490,
      "gebra": 4491,
      "Ġ1984": 4492,
      "lled": 4493,
      "ĠIslands": 4494,
      "ĠOrthodox": 4495,
      "ceeded": 4496,
      "Ġlaunched": 4497,
      "Ġcerem": 4498,
      "Ġbeyond": 4499,
      "hold": 4500,
      "ixt": 4501,
      "time": 4502,
      "yth": 4503,
      "Ġtree": 4504,
      "onn": 4505,
      "Ġpoverty": 4506,
      "Ġfully": 4507,
      "ĠAe": 4508,
      "Ġmis": 4509,
      "ulate": 4510,
      "Ġgrant": 4511,
      "Ġsuc": 4512,
      "izations": 4513,
      "Ġemb": 4514,
      "zero": 4515,
      "Ġprograms": 4516,
      "Ġetc": 4517,
      "ĠMexico": 4518,
      "Ġagricultural": 4519,
      "73": 4520,
      "uz": 4521,
      "Ġcrop": 4522,
      "Ġpoll": 4523,
      "irm": 4524,
      "Ġstop": 4525,
      "aval": 4526,
      "Ġexact": 4527,
      "ĠInt": 4528,
      "Ġchall": 4529,
      "ĠStand": 4530,
      "Ġadj": 4531,
      "Ġ1985": 4532,
      "Ġextreme": 4533,
      "Ġbelong": 4534,
      "Ġsoldiers": 4535,
      "Ġmaterials": 4536,
      "ĠCompany": 4537,
      "ĠAmbrose": 4538,
      "65": 4539,
      "cel": 4540,
      "inate": 4541,
      "Ġbor": 4542,
      "Ġbasketball": 4543,
      "Ġnative": 4544,
      "Ġstre": 4545,
      "Ġaband": 4546,
      "ova": 4547,
      "Ġsport": 4548,
      "Ġjur": 4549,
      "Ġquar": 4550,
      "Ġ1981": 4551,
      "ockey": 4552,
      "Ġslavery": 4553,
      "Ġlaws": 4554,
      "Ġphilosoph": 4555,
      "Ġpresented": 4556,
      "Ġopened": 4557,
      "Ġalcoh": 4558,
      "ĠSwedish": 4559,
      "Ġaxiom": 4560,
      "Ġquickly": 4561,
      "43": 4562,
      "ca": 4563,
      "den": 4564,
      "uis": 4565,
      "Ġ*": 4566,
      "Ġmig": 4567,
      "enth": 4568,
      "Ġaspirin": 4569,
      "odes": 4570,
      "ĠRed": 4571,
      "agram": 4572,
      "Ġrang": 4573,
      "akistan": 4574,
      "Ġ1962": 4575,
      "Ġcollect": 4576,
      "ĠLee": 4577,
      "Ġclaims": 4578,
      "Ġmotor": 4579,
      "Ġprinciple": 4580,
      "Ġpreviously": 4581,
      "ĠArgent": 4582,
      ",\\": 4583,
      "book": 4584,
      "Ġpian": 4585,
      "Ġfif": 4586,
      "Ġburn": 4587,
      "Ġ(),": 4588,
      "ĠMag": 4589,
      "Ġgives": 4590,
      "Ġalle": 4591,
      "umen": 4592,
      "Ġexam": 4593,
      "ĠUr": 4594,
      "Ġ1971": 4595,
      "ception": 4596,
      "Ġended": 4597,
      "Ġdecay": 4598,
      "Ġoldest": 4599,
      "Ġexperiment": 4600,
      "Ġalternative": 4601,
      "ĠOttoman": 4602,
      "erg": 4603,
      "Ġsus": 4604,
      "Ġcred": 4605,
      "Ġpun": 4606,
      "Ġperm": 4607,
      "Ġbrief": 4608,
      "ĠBay": 4609,
      "Ġalg": 4610,
      "ĠOd": 4611,
      "ĠOpen": 4612,
      "Ġactually": 4613,
      "Ġsubst": 4614,
      "Ġwhereas": 4615,
      "ĠConstant": 4616,
      "Ġextended": 4617,
      "ĠOrgan": 4618,
      "Ġfactors": 4619,
      "Ġprominent": 4620,
      "Ġfreed": 4621,
      "ĠOctav": 4622,
      "Ġappearance": 4623,
      "Ġdefeat": 4624,
      "ĠZeus": 4625,
      "eople": 4626,
      "ville": 4627,
      "head": 4628,
      "ancy": 4629,
      "Ġwinter": 4630,
      "ĠCamp": 4631,
      "Ġconne": 4632,
      "ĠDen": 4633,
      "Ġnotable": 4634,
      "Ġformation": 4635,
      "Ġdespite": 4636,
      "Ġwrite": 4637,
      "Ġ1987": 4638,
      "Ġ80": 4639,
      "Ġcommunities": 4640,
      "Ġfrequently": 4641,
      "nThis": 4642,
      "Ġnucleus": 4643,
      "oration": 4644,
      "Ġmiddle": 4645,
      "ĠMah": 4646,
      "Ġleaving": 4647,
      "aily": 4648,
      "Ġ1979": 4649,
      "Ġworldwide": 4650,
      "Ġprovides": 4651,
      "nNotes": 4652,
      "Ġpossibly": 4653,
      "emitic": 4654,
      "Ġrecognized": 4655,
      "Ġvowel": 4656,
      "99": 4657,
      "Ch": 4658,
      "Ã¤": 4659,
      "Ã«": 4660,
      "rec": 4661,
      "Ġspl": 4662,
      "Ġmind": 4663,
      "Ġhot": 4664,
      "Ġvoc": 4665,
      "Ġimpl": 4666,
      "Ġplaywright": 4667,
      "Ġmodels": 4668,
      "Ġ1975": 4669,
      "Ġartists": 4670,
      "Ġcreation": 4671,
      "Ġcritical": 4672,
      "Ġmarked": 4673,
      "Ġnecessary": 4674,
      "ĠDepartment": 4675,
      "77": 4676,
      "Ġ/": 4677,
      "Ġtheore": 4678,
      "Ġmel": 4679,
      "Ġmoney": 4680,
      "Ġreb": 4681,
      "Ġlink": 4682,
      "ĠServ": 4683,
      "estic": 4684,
      "Ġheat": 4685,
      "Ġmove": 4686,
      "apers": 4687,
      "ĠThat": 4688,
      "Ġedition": 4689,
      "Ġrules": 4690,
      "Ġabandon": 4691,
      "ID": 4692,
      "sw": 4693,
      "wise": 4694,
      "Ġancest": 4695,
      "Ġfear": 4696,
      "Ġtold": 4697,
      "Ġhor": 4698,
      "Ġnob": 4699,
      "imb": 4700,
      "Ġgraph": 4701,
      "ĠBecause": 4702,
      "Ġalmond": 4703,
      "Ġstone": 4704,
      "ĠGreen": 4705,
      "ody": 4706,
      "Ġchief": 4707,
      "Ġcontract": 4708,
      "Ġintellect": 4709,
      "Ġclosed": 4710,
      "Ġ22": 4711,
      "nSome": 4712,
      "ĠYear": 4713,
      "Ġgreatest": 4714,
      "Ġfields": 4715,
      "Ġmathematics": 4716,
      "Ġalpha": 4717,
      "Ġtennis": 4718,
      "orus": 4719,
      "ĠAst": 4720,
      "utive": 4721,
      "ĠForm": 4722,
      "Ġcomes": 4723,
      "Ġspent": 4724,
      "Ġ1978": 4725,
      "Ġremaining": 4726,
      "Ġinstance": 4727,
      "Ġextrem": 4728,
      "Ġshowed": 4729,
      "ĠRepublican": 4730,
      "Ġspacecraft": 4731,
      "Ġpassed": 4732,
      "uxley": 4733,
      "Ġdedicated": 4734,
      "Ġrugby": 4735,
      "cap": 4736,
      "isher": 4737,
      "Ġpie": 4738,
      "ĠBet": 4739,
      "âĢĻ": 4740,
      "ĠHell": 4741,
      "Ġstay": 4742,
      "ĠLife": 4743,
      "ĠFort": 4744,
      "rier": 4745,
      "Ġchlor": 4746,
      "Ġcontaining": 4747,
      "Ġcontinue": 4748,
      "Ġfavor": 4749,
      "ĠCaes": 4750,
      "Ġawarded": 4751,
      "Ġhypot": 4752,
      "ken": 4753,
      "rate": 4754,
      "war": 4755,
      "atur": 4756,
      "Ġpet": 4757,
      "Ġbillion": 4758,
      "ĠTwo": 4759,
      "Ġalgebra": 4760,
      "ĠHun": 4761,
      "thing": 4762,
      "ĠDis": 4763,
      "acing": 4764,
      "nAp": 4765,
      "assium": 4766,
      "Ġcontemporary": 4767,
      "cluding": 4768,
      "tym": 4769,
      "ĠScot": 4770,
      "Ġdrug": 4771,
      "Ġsuggests": 4772,
      "Ġgrowing": 4773,
      "Ġchanged": 4774,
      "Ġoxygen": 4775,
      "Ġorders": 4776,
      "nam": 4777,
      "Ġaim": 4778,
      "iny": 4779,
      "Ġca": 4780,
      "Ġpure": 4781,
      "Ġmill": 4782,
      "ĠMel": 4783,
      "ĠBoth": 4784,
      "ĠDr": 4785,
      "ĠFore": 4786,
      "ifically": 4787,
      "Ġspeech": 4788,
      "Ġdistribution": 4789,
      "Ġfourth": 4790,
      "Ġphysician": 4791,
      "irds": 4792,
      "Ġlaure": 4793,
      "Ġmotion": 4794,
      "Ġphilosophers": 4795,
      "Ġclosely": 4796,
      "Ġolder": 4797,
      "Ġcompletely": 4798,
      "ampionship": 4799,
      "35": 4800,
      "DP": 4801,
      "eks": 4802,
      "Ġpil": 4803,
      "ĠAri": 4804,
      "Ġisol": 4805,
      "Ġconsequ": 4806,
      "ĠRob": 4807,
      "ĠLater": 4808,
      "Ġsector": 4809,
      "ĠKn": 4810,
      "Ġship": 4811,
      "Ġamber": 4812,
      "Ġshell": 4813,
      "Ġslight": 4814,
      "Ġadvoc": 4815,
      "Ġviews": 4816,
      "Ġoccurred": 4817,
      "Ġeducator": 4818,
      "Ġmathematical": 4819,
      "Ġbranch": 4820,
      "Ġinstitutions": 4821,
      "Ġconstitution": 4822,
      "Ġbehavior": 4823,
      "38": 4824,
      "log": 4825,
      "min": 4826,
      "onia": 4827,
      "Ġways": 4828,
      "icium": 4829,
      "Ġpath": 4830,
      "ĠJac": 4831,
      "ĠUl": 4832,
      "ĠAsian": 4833,
      "Ġ1963": 4834,
      "Ġarticle": 4835,
      "nDe": 4836,
      "uese": 4837,
      "ĠCarol": 4838,
      "Ġmedicine": 4839,
      "ĠWhite": 4840,
      "Ġskin": 4841,
      "Ġabbrev": 4842,
      "Ġpurpose": 4843,
      "ĠByzantine": 4844,
      "fect": 4845,
      "Ġfish": 4846,
      "Ġface": 4847,
      "Ġbank": 4848,
      "ĠTarkovsky": 4849,
      "Ġislands": 4850,
      "Ġgrand": 4851,
      "Ġgrew": 4852,
      "aging": 4853,
      "Ġhere": 4854,
      "duc": 4855,
      "Ġrob": 4856,
      "Ġcoup": 4857,
      "Ġdirected": 4858,
      "Ġinside": 4859,
      "Ġmoving": 4860,
      "ĠEdward": 4861,
      "Ġopposed": 4862,
      "Ġrelease": 4863,
      "ĠCounty": 4864,
      "Ġfemale": 4865,
      "gn": 4866,
      "lers": 4867,
      "present": 4868,
      "vement": 4869,
      "Î±": 4870,
      "atosaurus": 4871,
      "Ġtoward": 4872,
      "ĠCons": 4873,
      "ety": 4874,
      "ĠHow": 4875,
      "ĠNether": 4876,
      "nAmerican": 4877,
      "arden": 4878,
      "ĠAli": 4879,
      "Ġintended": 4880,
      "Ġresources": 4881,
      "Ġspeed": 4882,
      "ictions": 4883,
      "Ġ1982": 4884,
      "Ġ1983": 4885,
      "Ġweak": 4886,
      "Ġ1964": 4887,
      "nPeople": 4888,
      "Ġprovinces": 4889,
      "Ġfollows": 4890,
      "Ġdecades": 4891,
      "Ġfinancial": 4892,
      "Ġscientists": 4893,
      ".)\\": 4894,
      "water": 4895,
      "ĠAqu": 4896,
      "road": 4897,
      "Ġmut": 4898,
      "Ġdivers": 4899,
      "Ġnight": 4900,
      "erse": 4901,
      "ĠJes": 4902,
      "nIt": 4903,
      "Ġprep": 4904,
      "Ġpeak": 4905,
      "Ġ1972": 4906,
      "Ġdifference": 4907,
      "Ġdepos": 4908,
      "Ġportray": 4909,
      "ĠAlbanian": 4910,
      "Ġsexual": 4911,
      "Ġphenomen": 4912,
      "Ġincorpor": 4913,
      "ĠTreaty": 4914,
      "66": 4915,
      "95": 4916,
      "ees": 4917,
      "ih": 4918,
      "Ġzero": 4919,
      "ona": 4920,
      "Ġfle": 4921,
      "omic": 4922,
      "ĠSultan": 4923,
      "ĠModern": 4924,
      "ĠBill": 4925,
      "ĠBern": 4926,
      "ĠGar": 4927,
      "vert": 4928,
      "ĠLand": 4929,
      "Ġreserv": 4930,
      "ounded": 4931,
      "Ġdouble": 4932,
      "Ġstudied": 4933,
      "Ġcorre": 4934,
      "onym": 4935,
      "Ġbodies": 4936,
      "Ġboard": 4937,
      "Ġbroadcast": 4938,
      "sal": 4939,
      "Ġactions": 4940,
      "ora": 4941,
      "itting": 4942,
      "Ġpra": 4943,
      "Ġpowers": 4944,
      "ĠMaced": 4945,
      "Ġonline": 4946,
      "ithium": 4947,
      "ĠGroup": 4948,
      "hens": 4949,
      "Ġscale": 4950,
      "Ġsyll": 4951,
      "Ġrecomm": 4952,
      "Ġempire": 4953,
      "Ġcolor": 4954,
      "Ġentered": 4955,
      "Ġfeel": 4956,
      "Ġgovernor": 4957,
      "Ġserve": 4958,
      "Ġimportance": 4959,
      "nWhen": 4960,
      "iterran": 4961,
      "Ġtechnique": 4962,
      "Ġsomething": 4963,
      "puter": 4964,
      "Ġgenus": 4965,
      "igua": 4966,
      "Ġtemperatures": 4967,
      "Ġdetermined": 4968,
      "Ġlaunch": 4969,
      "ĠResearch": 4970,
      "ĠBuddhist": 4971,
      "Ġsteel": 4972,
      "ĠNetherlands": 4973,
      "died": 4974,
      "spe": 4975,
      "wa": 4976,
      "Ġut": 4977,
      "Ġpal": 4978,
      "Ġfederal": 4979,
      "Ġlingu": 4980,
      "Ġunknown": 4981,
      "ĠAncient": 4982,
      "Ġnotably": 4983,
      "Ġcontent": 4984,
      "ĠEng": 4985,
      "obe": 4986,
      "Ġefforts": 4987,
      "Ġdepend": 4988,
      "Ġmusician": 4989,
      "Ġsecondary": 4990,
      "ĠCambridge": 4991,
      "Ġalgorithms": 4992,
      "ĠGovernor": 4993,
      "ĠVirginia": 4994,
      "billion": 4995,
      "mad": 4996,
      "atre": 4997,
      "alities": 4998,
      "Ġwaves": 4999,
      "omical": 5000,
      "iment": 5001,
      "Ġproced": 5002,
      "ounder": 5003,
      "ĠJo": 5004,
      "phone": 5005,
      "ĠUnder": 5006,
      "teen": 5007,
      "Ġamateur": 5008,
      "Ġsubstant": 5009,
      "Ġeffic": 5010,
      "Ġblock": 5011,
      "nNational": 5012,
      "Ġtraditions": 5013,
      "Ġcontrovers": 5014,
      "Ġmedieval": 5015,
      "Ġprocesses": 5016,
      "Ġperformance": 5017,
      "Ġasteroids": 5018,
      "Ġexpected": 5019,
      "Ġintelligence": 5020,
      "Ġasked": 5021,
      "Ġimmediately": 5022,
      "As": 5023,
      "CO": 5024,
      "iary": 5025,
      "oys": 5026,
      "yst": 5027,
      "Ġpray": 5028,
      "Ġhockey": 5029,
      "entially": 5030,
      "oly": 5031,
      "aded": 5032,
      "outheast": 5033,
      "ologies": 5034,
      "obile": 5035,
      "formed": 5036,
      "Ġweeks": 5037,
      "Ġsymbols": 5038,
      "Ġethnic": 5039,
      "ifying": 5040,
      "ĠMexican": 5041,
      "Ġmeeting": 5042,
      "Ġaccordion": 5043,
      "Ġliquid": 5044,
      "55": 5045,
      "68": 5046,
      "een": 5047,
      "Ġsites": 5048,
      "Ġang": 5049,
      "ĠSpec": 5050,
      "Ġnine": 5051,
      "ĠBu": 5052,
      "ĠPakistan": 5053,
      "ĠGen": 5054,
      "ĠRad": 5055,
      "Ġshape": 5056,
      "rone": 5057,
      "Ġpriest": 5058,
      "ificial": 5059,
      "nEarly": 5060,
      "ĠGreeks": 5061,
      "Ġreference": 5062,
      "ĠColumb": 5063,
      "nAlthough": 5064,
      "Ġliterary": 5065,
      "Ġapplications": 5066,
      "Ġratio": 5067,
      "32": 5068,
      "English": 5069,
      "rm": 5070,
      "Ġcounter": 5071,
      "ĠAK": 5072,
      "Ġrepe": 5073,
      "Ġlives": 5074,
      "Ġasphalt": 5075,
      "ĠMer": 5076,
      "ĠEth": 5077,
      "ods": 5078,
      "ĠDuke": 5079,
      "abul": 5080,
      "seud": 5081,
      "ĠAruba": 5082,
      "Ġexpans": 5083,
      "Ġaxon": 5084,
      "Ġoxid": 5085,
      "Ġheavy": 5086,
      "iterranean": 5087,
      "km": 5088,
      "Ġsays": 5089,
      "Ġcos": 5090,
      "Ġwin": 5091,
      "Ġbring": 5092,
      "Ġmaxim": 5093,
      "unc": 5094,
      "uther": 5095,
      "ĠPan": 5096,
      "ĠTheod": 5097,
      "oples": 5098,
      "ipment": 5099,
      "Ġarts": 5100,
      "Ġleave": 5101,
      "ĠVict": 5102,
      "Ġroad": 5103,
      "weitzer": 5104,
      "ĠYoun": 5105,
      "Ġ1967": 5106,
      "ĠSwiss": 5107,
      "Ġcombination": 5108,
      "United": 5109,
      "Ġcycl": 5110,
      "Ġagreement": 5111,
      "Ġvirt": 5112,
      "Ġphysicist": 5113,
      "09": 5114,
      "TO": 5115,
      "yal": 5116,
      "Ġsodium": 5117,
      "Ġple": 5118,
      "Ġbox": 5119,
      "Ġreasons": 5120,
      "ĠCre": 5121,
      "ido": 5122,
      "Ġfort": 5123,
      "osal": 5124,
      "Ġproport": 5125,
      "ĠAlan": 5126,
      "Ġformula": 5127,
      "Ġplayers": 5128,
      "nCl": 5129,
      "Ġwealth": 5130,
      "Ġcolle": 5131,
      "Ġ1939": 5132,
      "anning": 5133,
      "inistry": 5134,
      "Ġdescribe": 5135,
      "ĠAllosaurus": 5136,
      "Ġofficially": 5137,
      "Ġavoid": 5138,
      "Ġscholar": 5139,
      "Ġunderstanding": 5140,
      "ĠSmith": 5141,
      "Ġsubsequently": 5142,
      "Ġnitrogen": 5143,
      "ĠPortuguese": 5144,
      "Ġremoved": 5145,
      "ĠProtest": 5146,
      "AS": 5147,
      "equ": 5148,
      "king": 5149,
      "ned": 5150,
      "Ġsom": 5151,
      "oric": 5152,
      "urs": 5153,
      "ĠSir": 5154,
      "stan": 5155,
      "ĠCas": 5156,
      "Ġalone": 5157,
      "ĠGer": 5158,
      "ĠFound": 5159,
      "Ġseems": 5160,
      "Ġcontext": 5161,
      "ibli": 5162,
      "Ġyield": 5163,
      "ĠHeb": 5164,
      "Ġconserv": 5165,
      "Ġ31": 5166,
      "Ġattention": 5167,
      "Ġquality": 5168,
      "Ġextra": 5169,
      "ĠLeague": 5170,
      "Ġappeal": 5171,
      "Ġprogress": 5172,
      "Ġastatine": 5173,
      "Ġallows": 5174,
      "ĠEarly": 5175,
      "Ġarchae": 5176,
      "Ġbegins": 5177,
      "Ġterritories": 5178,
      "Ġtwent": 5179,
      "Ġhonor": 5180,
      "Ġresponsible": 5181,
      "ĠMartin": 5182,
      "Ġrejected": 5183,
      "ibert": 5184,
      "rants": 5185,
      "vation": 5186,
      "Ġcovered": 5187,
      "Ġindu": 5188,
      "ady": 5189,
      "Ġgiving": 5190,
      "ĠHuxley": 5191,
      "Ġstra": 5192,
      "ĠNap": 5193,
      "ĠOx": 5194,
      "ords": 5195,
      "Ġaccomp": 5196,
      "nCon": 5197,
      "Ġ1947": 5198,
      "Ġ1929": 5199,
      "comm": 5200,
      "Ġfinally": 5201,
      "Ġabsor": 5202,
      "Ġsemi": 5203,
      "%,": 5204,
      "74": 5205,
      "from": 5206,
      "oes": 5207,
      "po": 5208,
      "Ġinput": 5209,
      "Ġbr": 5210,
      "Ġbrain": 5211,
      "ĠAge": 5212,
      "Ġmort": 5213,
      "level": 5214,
      "uran": 5215,
      "iders": 5216,
      "ĠRog": 5217,
      "ĠDanish": 5218,
      "Ġsearch": 5219,
      "Ġperhaps": 5220,
      "Ġpolice": 5221,
      "Ġprem": 5222,
      "Ġraised": 5223,
      "nPre": 5224,
      "Ġ1944": 5225,
      "Ġrefused": 5226,
      "Ġminutes": 5227,
      "Ġcausing": 5228,
      "Ġkilling": 5229,
      "ĠMediterranean": 5230,
      "Ġcircum": 5231,
      "Ġinterpre": 5232,
      "Ġagriculture": 5233,
      "Ġdiscovery": 5234,
      "Ġorbital": 5235,
      "cies": 5236,
      "ds": 5237,
      "Ġtried": 5238,
      "ala": 5239,
      "itic": 5240,
      "Ġfast": 5241,
      "ĠAene": 5242,
      "Ġdro": 5243,
      "Ġdra": 5244,
      "usion": 5245,
      "ĠNations": 5246,
      "ĠAlps": 5247,
      "ĠAlfred": 5248,
      "ĠAnkara": 5249,
      "ibb": 5250,
      "ternet": 5251,
      "Ġ1966": 5252,
      "Ġmonth": 5253,
      "ĠProject": 5254,
      "Ġmusical": 5255,
      "Ġrevol": 5256,
      "Ġparalle": 5257,
      "Ġtrees": 5258,
      "Ġagreed": 5259,
      "ĠDespite": 5260,
      "Ġdialects": 5261,
      "Ġurban": 5262,
      "Ġequivalent": 5263,
      "Cl": 5264,
      "gu": 5265,
      "gment": 5266,
      "vin": 5267,
      "Ġanat": 5268,
      "Ġrecon": 5269,
      "ĠTom": 5270,
      "ĠTex": 5271,
      "otic": 5272,
      "ĠBank": 5273,
      "ĠPac": 5274,
      "ĠDur": 5275,
      "ortun": 5276,
      "mericium": 5277,
      "Ġsec": 5278,
      "sec": 5279,
      "ĠKenn": 5280,
      "ulture": 5281,
      "Ġneur": 5282,
      "Ġrecently": 5283,
      "Ġ1961": 5284,
      "velopment": 5285,
      "Ġ1928": 5286,
      "Ġpropag": 5287,
      "Ġallowing": 5288,
      "Ġdevices": 5289,
      "III": 5290,
      "Ġmagazine": 5291,
      "Ġmagnitude": 5292,
      "Ġadapted": 5293,
      "Ġnormal": 5294,
      "Ġeasily": 5295,
      "44": 5296,
      "IS": 5297,
      "gg": 5298,
      "las": 5299,
      "lies": 5300,
      "sl": 5301,
      "inth": 5302,
      "Ġcars": 5303,
      "Ġhy": 5304,
      "ĠTim": 5305,
      "amin": 5306,
      "ĠMilitary": 5307,
      "ĠBak": 5308,
      "ĠGulf": 5309,
      "ĠDi": 5310,
      "ĠFried": 5311,
      "ĠNavy": 5312,
      "acus": 5313,
      "Ġchain": 5314,
      "rance": 5315,
      "Ġphase": 5316,
      "ĠAmazing": 5317,
      "ropri": 5318,
      "ydos": 5319,
      "Ġ1926": 5320,
      "eget": 5321,
      "Ġpowerful": 5322,
      "ymn": 5323,
      "Ġcurrently": 5324,
      "Ġlogic": 5325,
      "Ġmemory": 5326,
      "da": 5327,
      "tar": 5328,
      "Ä«": 5329,
      "Ġtrial": 5330,
      "reland": 5331,
      "ening": 5332,
      "Ġsun": 5333,
      "eding": 5334,
      "Ġcov": 5335,
      "Ġmixed": 5336,
      "cts": 5337,
      "ĠSant": 5338,
      "ĠSub": 5339,
      "ĠMen": 5340,
      "ĠHuman": 5341,
      "Ġconvent": 5342,
      "Ġconvers": 5343,
      "Ġvac": 5344,
      "ocks": 5345,
      "ĠAlso": 5346,
      "ĠAlaric": 5347,
      "irect": 5348,
      "aped": 5349,
      "Ġshared": 5350,
      "rons": 5351,
      "achus": 5352,
      "Ġ35": 5353,
      "Ġregional": 5354,
      "nBy": 5355,
      "ĠForces": 5356,
      "Ġequipment": 5357,
      "ivaldi": 5358,
      "Ġstandards": 5359,
      "Ġreduce": 5360,
      "Ġinitially": 5361,
      "Ġexpression": 5362,
      "Ġcaptured": 5363,
      "ĠAberdeen": 5364,
      "ĠAege": 5365,
      "Ġalgae": 5366,
      "inity": 5367,
      "aters": 5368,
      "esium": 5369,
      "orter": 5370,
      "Ġcand": 5371,
      "Ġbig": 5372,
      "Ġmoral": 5373,
      "oles": 5374,
      "ĠSk": 5375,
      "Ġones": 5376,
      "thur": 5377,
      "ĠFin": 5378,
      "ĠFour": 5379,
      "Ġrich": 5380,
      "ube": 5381,
      "rence": 5382,
      "Ġrough": 5383,
      "Ġproducing": 5384,
      "Ġattacks": 5385,
      "Ġdefend": 5386,
      "Ġworkers": 5387,
      "Ġuseful": 5388,
      "Ġdifferences": 5389,
      "Ġparticle": 5390,
      "Ġ1938": 5391,
      "Ġdescribes": 5392,
      "Ġskull": 5393,
      "related": 5394,
      "Ġprojects": 5395,
      "Ġaltru": 5396,
      "72": 5397,
      "AR": 5398,
      "set": 5399,
      "uin": 5400,
      "isf": 5401,
      "Ġsn": 5402,
      "Ġsnow": 5403,
      "Ġsister": 5404,
      "Ġangles": 5405,
      "Ġfert": 5406,
      "roc": 5407,
      "Ġmac": 5408,
      "Ġnerv": 5409,
      "Ġproved": 5410,
      "1900": 5411,
      "active": 5412,
      "Ġamphib": 5413,
      "ĠSecret": 5414,
      "rows": 5415,
      "Ġstatement": 5416,
      "ĠChristianity": 5417,
      "force": 5418,
      "ĠPeople": 5419,
      "Ġnetwork": 5420,
      "ĠGeorgia": 5421,
      "49": 5422,
      "iography": 5423,
      "mic": 5424,
      "arp": 5425,
      "Ġpair": 5426,
      "Ġpurch": 5427,
      "Ġfoss": 5428,
      "Ġbal": 5429,
      "asc": 5430,
      "ĠMad": 5431,
      "ĠOf": 5432,
      "ĠAnimal": 5433,
      "ĠViet": 5434,
      "ĠSpart": 5435,
      "ĠProg": 5436,
      "Ġphysics": 5437,
      "Ġpotassium": 5438,
      "Ġdeliver": 5439,
      "Ġindicate": 5440,
      "ĠASL": 5441,
      "Ġlearning": 5442,
      "Ġobtained": 5443,
      "Ġphilosophical": 5444,
      "indu": 5445,
      "Ġperman": 5446,
      "Ġfixed": 5447,
      "ĠTor": 5448,
      "ulco": 5449,
      "ĠMic": 5450,
      "ĠEconom": 5451,
      "ĠRock": 5452,
      "Ġresemb": 5453,
      "Ġ1948": 5454,
      "Ġincreases": 5455,
      "Ġ[#": 5456,
      "ĠBerlin": 5457,
      "Ġencour": 5458,
      "Ġstrength": 5459,
      "bul": 5460,
      "cop": 5461,
      "pread": 5462,
      "Ġtherm": 5463,
      "atically": 5464,
      "icon": 5465,
      "Ġdaily": 5466,
      "Ġreactions": 5467,
      "ĠTime": 5468,
      "Ġnor": 5469,
      "Ġnomin": 5470,
      "utation": 5471,
      "ĠLanguage": 5472,
      "ĠFurther": 5473,
      "Ġdeal": 5474,
      "ĠWal": 5475,
      "ĠJack": 5476,
      "class": 5477,
      "Ġclub": 5478,
      "ructions": 5479,
      "Ġ1933": 5480,
      "ructure": 5481,
      "ĠRomanian": 5482,
      "ticles": 5483,
      "Ġentirely": 5484,
      "Ġbranches": 5485,
      "Ġcomparison": 5486,
      "Ġcells": 5487,
      "ĠQueen": 5488,
      "ĠAegean": 5489,
      "Aust": 5490,
      "lar": 5491,
      "mosp": 5492,
      "nce": 5493,
      "isd": 5494,
      "icus": 5495,
      "ĠAster": 5496,
      "ĠSur": 5497,
      "ĠSil": 5498,
      "otion": 5499,
      "ĠEven": 5500,
      "ĠGo": 5501,
      "Ġusers": 5502,
      "ella": 5503,
      "Ġenj": 5504,
      "Ġneuro": 5505,
      "ĠApatosaurus": 5506,
      "embly": 5507,
      "Ġ70": 5508,
      "Ġrequires": 5509,
      "Ġorganization": 5510,
      "Ġopposition": 5511,
      "Ġgoal": 5512,
      "ĠMont": 5513,
      "Ġcelebrated": 5514,
      "Ġambigu": 5515,
      "Ġdemonst": 5516,
      "ĠKorean": 5517,
      "Ġdescription": 5518,
      "Ġslightly": 5519,
      "88": 5520,
      "eed": 5521,
      "iate": 5522,
      "rin": 5523,
      "rey": 5524,
      "Ġsen": 5525,
      "Ġbott": 5526,
      "ione": 5527,
      "Ġhun": 5528,
      "Ġreach": 5529,
      "ĠTop": 5530,
      "uty": 5531,
      "oting": 5532,
      "ells": 5533,
      "phal": 5534,
      "hess": 5535,
      "Ġsoil": 5536,
      "ĠAustria": 5537,
      "ĠLev": 5538,
      "Ġ1943": 5539,
      "Ġaddress": 5540,
      "Ġlanding": 5541,
      "rising": 5542,
      "Ġpaint": 5543,
      "Ġattempted": 5544,
      "Ġvowels": 5545,
      "Ġfighting": 5546,
      "Ġtarget": 5547,
      "igenous": 5548,
      "ls": 5549,
      "pired": 5550,
      "rÃ©": 5551,
      "ucl": 5552,
      "vard": 5553,
      "Ġ)": 5554,
      "Ġcast": 5555,
      "Ġwides": 5556,
      "Ġpack": 5557,
      "ĠAN": 5558,
      "ĠIreland": 5559,
      "Ġwithd": 5560,
      "ĠElect": 5561,
      "ĠDiv": 5562,
      "ĠOs": 5563,
      "ĠAnim": 5564,
      "Ġimperial": 5565,
      "Ġagg": 5566,
      "Ġrelative": 5567,
      "ĠPhilos": 5568,
      "Ġreven": 5569,
      "nWith": 5570,
      "Ġpoetry": 5571,
      "Ġsignificantly": 5572,
      "Ġexperiments": 5573,
      "ĠAaron": 5574,
      "ĠGovernment": 5575,
      "Ġapplication": 5576,
      "Ġarrived": 5577,
      "ĠAntarctic": 5578,
      "Ġsurrounding": 5579,
      "Ġhouses": 5580,
      "Ġsympt": 5581,
      "Ġmoment": 5582,
      "ĠÂ": 5583,
      "inet": 5584,
      "atform": 5585,
      "Ġsulf": 5586,
      "itness": 5587,
      "Ġcle": 5588,
      "Ġbomb": 5589,
      "ĠColl": 5590,
      "ulg": 5591,
      "Ġasc": 5592,
      "ĠMod": 5593,
      "Ġbeaut": 5594,
      "iful": 5595,
      "Ġusage": 5596,
      "ĠVivaldi": 5597,
      "Ġ1965": 5598,
      "ographical": 5599,
      "Ġ1921": 5600,
      "Ġversions": 5601,
      "Ġrecords": 5602,
      "Ġcorresponding": 5603,
      "Ġfeatured": 5604,
      "Ġdigital": 5605,
      "iformes": 5606,
      "Ġwalls": 5607,
      "emnon": 5608,
      "Ġconcluded": 5609,
      "ĠHungarian": 5610,
      "Ġexpansion": 5611,
      "rust": 5612,
      "Ġpict": 5613,
      "roph": 5614,
      "uten": 5615,
      "ĠMu": 5616,
      "ĠMur": 5617,
      "Ġgreen": 5618,
      "agon": 5619,
      "aved": 5620,
      "ĠOut": 5621,
      "Ġchart": 5622,
      "Ġchosen": 5623,
      "ecting": 5624,
      "Ġcommission": 5625,
      "Ġprime": 5626,
      "Ġinvasion": 5627,
      "Ġleaders": 5628,
      "nWh": 5629,
      "Ġcourse": 5630,
      "Ġcomputers": 5631,
      "Ġpractices": 5632,
      "Ġkept": 5633,
      "itzerland": 5634,
      "Ġsubsequent": 5635,
      "ĠSuper": 5636,
      "Ġthousands": 5637,
      "Ġantimony": 5638,
      "Ġdestroyed": 5639,
      "ĠOctavian": 5640,
      "Ġextremely": 5641,
      "tymology": 5642,
      "ĠJesus": 5643,
      "iner": 5644,
      "atus": 5645,
      "Ġsons": 5646,
      "Ġcard": 5647,
      "ĠSa": 5648,
      "ĠPash": 5649,
      "ĠFather": 5650,
      "acity": 5651,
      "Ġexclus": 5652,
      "Ġexchange": 5653,
      "Ġplanned": 5654,
      "ultural": 5655,
      "Ġroyal": 5656,
      "Ġprint": 5657,
      "ĠConstitution": 5658,
      "Ġinstrum": 5659,
      "Ġoccasion": 5660,
      "Ġsolid": 5661,
      "ĠAntigua": 5662,
      "Ġbegin": 5663,
      "Ġanalog": 5664,
      "Ġverte": 5665,
      "ĠPatri": 5666,
      "Ġanarchism": 5667,
      "ĠClassical": 5668,
      "ĠSenate": 5669,
      "Ġjurisd": 5670,
      "ĠCaesar": 5671,
      "08": 5672,
      "96": 5673,
      "TA": 5674,
      "col": 5675,
      "know": 5676,
      "ois": 5677,
      "Ġcru": 5678,
      "Ġpaid": 5679,
      "Ġfuel": 5680,
      "Ġball": 5681,
      "ĠAM": 5682,
      "Ġmilit": 5683,
      "entions": 5684,
      "ĠTod": 5685,
      "ĠSup": 5686,
      "amental": 5687,
      "ĠDer": 5688,
      "Ġveget": 5689,
      "riÃ¡n": 5690,
      "nAb": 5691,
      "Ġsports": 5692,
      "Ġmeant": 5693,
      "Ġpeoples": 5694,
      "Ġpoem": 5695,
      "Ġspecifically": 5696,
      "Ġnewsp": 5697,
      "Ġarticles": 5698,
      "ĠAdd": 5699,
      "Ġsimpl": 5700,
      "ĠLeg": 5701,
      "ĠSchweitzer": 5702,
      "Ġclassification": 5703,
      "Ġoperating": 5704,
      "Ġfactor": 5705,
      "Ġgreatly": 5706,
      "ipped": 5707,
      "ĠExp": 5708,
      "Ġdevice": 5709,
      "Ġhelped": 5710,
      "Ġconsisting": 5711,
      "Ġemployed": 5712,
      "Ã³n": 5713,
      "ĠAlcott": 5714,
      "ĠValley": 5715,
      "Ġspeakers": 5716,
      "Ġastronauts": 5717,
      "Ġwidespread": 5718,
      "ker": 5719,
      "Ġtaught": 5720,
      "Ġaid": 5721,
      "Ġsought": 5722,
      "also": 5723,
      "Ġcouncil": 5724,
      "Ġwinn": 5725,
      "Ġdark": 5726,
      "Ġhus": 5727,
      "ĠDig": 5728,
      "abilities": 5729,
      "udes": 5730,
      "ques": 5731,
      "ĠArthur": 5732,
      "Ġimages": 5733,
      "nInd": 5734,
      "Ġroom": 5735,
      "athan": 5736,
      "Ġacts": 5737,
      "Ġautism": 5738,
      "Ġinterview": 5739,
      "nOne": 5740,
      "Ġminim": 5741,
      "ependence": 5742,
      "Ġcourts": 5743,
      "Ġideal": 5744,
      "Ġcrim": 5745,
      "Ġpersons": 5746,
      "Ġessay": 5747,
      "Ġneutral": 5748,
      "Ġsaying": 5749,
      "ĠDarwin": 5750,
      "ĠTexas": 5751,
      "bishop": 5752,
      "Ġions": 5753,
      "itz": 5754,
      "asan": 5755,
      "usic": 5756,
      "ado": 5757,
      "umber": 5758,
      "ĠGall": 5759,
      "ĠRay": 5760,
      "Ġselection": 5761,
      "ellow": 5762,
      "claim": 5763,
      "Ġteeth": 5764,
      "Ġattributed": 5765,
      "Ġquite": 5766,
      "ĠCommon": 5767,
      "Ġsupply": 5768,
      "Ġeffort": 5769,
      "Ġelections": 5770,
      "Ġ1934": 5771,
      "Ġ1937": 5772,
      "Ġoperation": 5773,
      "nAdriÃ¡n": 5774,
      "Ġadvanced": 5775,
      "Ġactivist": 5776,
      "Ġgenetic": 5777,
      "cules": 5778,
      "ĠCamus": 5779,
      "ĠBooks": 5780,
      "ĠHoly": 5781,
      "Ġorbitals": 5782,
      "Ġcreating": 5783,
      "Ġthousand": 5784,
      "Ġalchemy": 5785,
      "ĠStandard": 5786,
      "ĠEngine": 5787,
      "ĠPacific": 5788,
      "54": 5789,
      "ao": 5790,
      "Ġtheolog": 5791,
      "alog": 5792,
      "Ġdiam": 5793,
      "elace": 5794,
      "olan": 5795,
      "ĠSo": 5796,
      "ĠMem": 5797,
      "irmed": 5798,
      "osure": 5799,
      "iana": 5800,
      "Ġ1925": 5801,
      "ĠLy": 5802,
      "ĠLos": 5803,
      "Ġvess": 5804,
      "Ġvast": 5805,
      "resents": 5806,
      "Ġatmosp": 5807,
      "ĠOff": 5808,
      "ĠOcean": 5809,
      "ĠKe": 5810,
      "Ġplans": 5811,
      "Ġleague": 5812,
      "Ġoverall": 5813,
      "Ġpositions": 5814,
      "Ġexpanded": 5815,
      "Ġclassified": 5816,
      "ĠAlexand": 5817,
      "Ġhistorians": 5818,
      "Ġinfluential": 5819,
      "Ġreports": 5820,
      "ĠSwitzerland": 5821,
      "Ġhands": 5822,
      "Ġreceive": 5823,
      "Ġintroduction": 5824,
      "Ġalkanes": 5825,
      "Ġresearc": 5826,
      "Ġexception": 5827,
      "Ġenvironmental": 5828,
      "Ġconnected": 5829,
      "Ġgranted": 5830,
      "Ġsomew": 5831,
      "63": 5832,
      "bre": 5833,
      "my": 5834,
      "ny": 5835,
      "Ġtheories": 5836,
      "ano": 5837,
      "edo": 5838,
      "Ġinner": 5839,
      "Ġfolk": 5840,
      "ĠPre": 5841,
      "osa": 5842,
      "ĠLab": 5843,
      "ĠLiber": 5844,
      "Ġsufficient": 5845,
      "Ġsecurity": 5846,
      "Ġworship": 5847,
      "ĠStep": 5848,
      "Ġago": 5849,
      "Ġactual": 5850,
      "Ġpregn": 5851,
      "Ġpolitics": 5852,
      "Ġgeneration": 5853,
      "theless": 5854,
      "ĠAbydos": 5855,
      "Ġrevolution": 5856,
      "Ġ1924": 5857,
      "Ġordered": 5858,
      "Ġvisited": 5859,
      "Ġdivision": 5860,
      "Ġincome": 5861,
      "Ġargument": 5862,
      "Ġlimit": 5863,
      "Ġplanet": 5864,
      "Ġincreasingly": 5865,
      "ĠAkk": 5866,
      "ĠStudies": 5867,
      "Ġresistance": 5868,
      "Ġsymptoms": 5869,
      "Th": 5870,
      "yan": 5871,
      "Ã¸": 5872,
      "Ġfounder": 5873,
      "Ġdog": 5874,
      "uration": 5875,
      "iling": 5876,
      "ĠTele": 5877,
      "struction": 5878,
      "iring": 5879,
      "Ġgained": 5880,
      "emen": 5881,
      "umn": 5882,
      "ĠGal": 5883,
      "ession": 5884,
      "Ġunique": 5885,
      "Ġarc": 5886,
      "Ġarms": 5887,
      "Ġspring": 5888,
      "rupt": 5889,
      "nSince": 5890,
      "Ġappropri": 5891,
      "Ġaccur": 5892,
      "Ġvarieties": 5893,
      "insula": 5894,
      "nMany": 5895,
      "Ġrepresents": 5896,
      "Ġsignal": 5897,
      "Ġeditor": 5898,
      "Ġ1955": 5899,
      "Ġ1959": 5900,
      "ĠJohnston": 5901,
      "ĠClaud": 5902,
      "Ġ1922": 5903,
      "Ġmovements": 5904,
      "Ġstarting": 5905,
      "ippi": 5906,
      "Ġidentity": 5907,
      "Ġconducted": 5908,
      "ĠSweden": 5909,
      "strong": 5910,
      "Ġsequence": 5911,
      "Ġabandoned": 5912,
      "Ġlaureate": 5913,
      "ĠOxford": 5914,
      "53": 5915,
      "called": 5916,
      "fall": 5917,
      "kes": 5918,
      "yles": 5919,
      "Ġtiss": 5920,
      "oria": 5921,
      "Ġfran": 5922,
      "Ġbra": 5923,
      "ĠAwards": 5924,
      "amemnon": 5925,
      "istical": 5926,
      "Ġ1919": 5927,
      "umes": 5928,
      "ĠFestival": 5929,
      "ĠNot": 5930,
      "Ġexternal": 5931,
      "rie": 5932,
      "ĠOver": 5933,
      "ĠUp": 5934,
      "Ġimage": 5935,
      "Ġroot": 5936,
      "Ġphon": 5937,
      "Ġpoison": 5938,
      "Ġcool": 5939,
      "Ġslaves": 5940,
      "Ġsolutions": 5941,
      "parag": 5942,
      "Ġvalid": 5943,
      "Ġexplicit": 5944,
      "Ġorganic": 5945,
      "Ġvisit": 5946,
      "Ġadopt": 5947,
      "Ġholds": 5948,
      "Ġvillage": 5949,
      "500": 5950,
      "64": 5951,
      "lo": 5952,
      "Ġ:": 5953,
      "inental": 5954,
      "including": 5955,
      "rea": 5956,
      "Ġmixt": 5957,
      "Ġdang": 5958,
      "elig": 5959,
      "Ġ()\\": 5960,
      "ĠMo": 5961,
      "ĠHu": 5962,
      "agan": 5963,
      "Ġsuff": 5964,
      "ĠJer": 5965,
      "Ġrival": 5966,
      "Ġuns": 5967,
      "ĠUk": 5968,
      "Ġlect": 5969,
      "ĠVog": 5970,
      "Ġparties": 5971,
      "Ġ1946": 5972,
      "Ġ1949": 5973,
      "Ġ1958": 5974,
      "ĠProto": 5975,
      "Ġorganized": 5976,
      "Ġofficer": 5977,
      "ĠPrince": 5978,
      "Ġelse": 5979,
      "Ġsumm": 5980,
      "Ġtreated": 5981,
      "Ġunderstood": 5982,
      "Ġcollabor": 5983,
      "Ġcomponents": 5984,
      "Ġaudience": 5985,
      "ĠBarbuda": 5986,
      "%),": 5987,
      "71": 5988,
      "CII": 5989,
      "VA": 5990,
      "iy": 5991,
      "pine": 5992,
      "Ġá": 5993,
      "atively": 5994,
      "Ġske": 5995,
      "alone": 5996,
      "inger": 5997,
      "Ġhit": 5998,
      "\\\").": 5999,
      "ĠMill": 6000,
      "iger": 6001,
      "ĠIB": 6002,
      "emis": 6003,
      "Ġ1918": 6004,
      "ĠGr": 6005,
      "romatic": 6006,
      "acher": 6007,
      "Ġexists": 6008,
      "itionally": 6009,
      "oston": 6010,
      "ubled": 6011,
      "Ġ38": 6012,
      "Ġcooper": 6013,
      "hemical": 6014,
      "Ġinvented": 6015,
      "Ġdeveloping": 6016,
      "Ġdepending": 6017,
      "Ġcharacteristics": 6018,
      "Ġrestaur": 6019,
      "ĠParliament": 6020,
      "Ġoppos": 6021,
      "Ġasteroid": 6022,
      "Ġeyes": 6023,
      "Ġwanted": 6024,
      "Ġweapons": 6025,
      "Ġpianist": 6026,
      "ĠColumbia": 6027,
      "ibliography": 6028,
      "ĠHebrew": 6029,
      "59": 6030,
      "bage": 6031,
      "dis": 6032,
      "ja": 6033,
      "mat": 6034,
      "Ġtons": 6035,
      "Ġamericium": 6036,
      "Ġrebell": 6037,
      "ĠTroy": 6038,
      "ĠMes": 6039,
      "ĠLes": 6040,
      "ĠJim": 6041,
      "ĠInc": 6042,
      "arters": 6043,
      "Ġunp": 6044,
      "appe": 6045,
      "Ġships": 6046,
      "ibl": 6047,
      "reek": 6048,
      "Ġdispl": 6049,
      "Ġcommander": 6050,
      "ĠAshes": 6051,
      "Ġsubur": 6052,
      "ĠSever": 6053,
      "Ġdefense": 6054,
      "Ġ500": 6055,
      "ĠRec": 6056,
      "Ġsetting": 6057,
      "Ġextent": 6058,
      "Ġdistrict": 6059,
      "Ġenter": 6060,
      "uropean": 6061,
      "Ġ1952": 6062,
      "Ġ1957": 6063,
      "Ġinspired": 6064,
      "Ġexplain": 6065,
      "Ġexplained": 6066,
      "Ġradiation": 6067,
      "Ġcritics": 6068,
      "Ġesc": 6069,
      "stead": 6070,
      "Ġstrongly": 6071,
      "Ġsituation": 6072,
      "Ġenjoy": 6073,
      "pus": 6074,
      "uit": 6075,
      "xic": 6076,
      "za": 6077,
      "Ġtask": 6078,
      "Ġfrog": 6079,
      "asy": 6080,
      "ila": 6081,
      "ĠCast": 6082,
      "ota": 6083,
      "ĠPier": 6084,
      "ĠPope": 6085,
      "ĠLew": 6086,
      "ĠNag": 6087,
      "Ġuser": 6088,
      "apulco": 6089,
      "ĠArian": 6090,
      "Ġcanon": 6091,
      "Ġroots": 6092,
      "ĠHealth": 6093,
      "ysics": 6094,
      "Ġ300": 6095,
      "ĠAmong": 6096,
      "Ġvariable": 6097,
      "Ġflow": 6098,
      "Ġextensive": 6099,
      "nFrom": 6100,
      "cycl": 6101,
      "ĠMarg": 6102,
      "ĠSciences": 6103,
      "Ġpractical": 6104,
      "Ġvolume": 6105,
      "Ġseparated": 6106,
      "ĠFreder": 6107,
      "Ġmanufactur": 6108,
      "ropolitan": 6109,
      "Ġaspects": 6110,
      "Ġdoctrine": 6111,
      "nWhile": 6112,
      "98": 6113,
      "SI": 6114,
      "Ġign": 6115,
      "itage": 6116,
      "Ġpig": 6117,
      "Ġfru": 6118,
      "Ġfelt": 6119,
      "Ġminister": 6120,
      "urt": 6121,
      "ĠMinistry": 6122,
      "ĠIl": 6123,
      "ĠIll": 6124,
      "ĠBrand": 6125,
      "Ġalter": 6126,
      "osh": 6127,
      "ĠGa": 6128,
      "ocry": 6129,
      "Ġrates": 6130,
      "Ġmob": 6131,
      "Ġplot": 6132,
      "Ġkings": 6133,
      "ronze": 6134,
      "Ġforming": 6135,
      "atha": 6136,
      "Ġagent": 6137,
      "Ġsubm": 6138,
      "Ġnewly": 6139,
      "ĠDevelopment": 6140,
      "Ġsigns": 6141,
      "Ġending": 6142,
      "Ġ1941": 6143,
      "ĠChristians": 6144,
      "Ġ1931": 6145,
      "Ġsolar": 6146,
      "Ġ90": 6147,
      "Ġpublication": 6148,
      "Ġmedium": 6149,
      "ĠAcapulco": 6150,
      "Ġmeasured": 6151,
      "Ġcalc": 6152,
      "Ġpredomin": 6153,
      ");\\": 6154,
      "Ġmissions": 6155,
      "Ġinhabit": 6156,
      "Ġsucceeded": 6157,
      "ĠFoundation": 6158,
      "Ġcandid": 6159,
      "Ġhusband": 6160,
      "-\\": 6161,
      "SO": 6162,
      "house": 6163,
      "la": 6164,
      "Ġcart": 6165,
      "iced": 6166,
      "Ġtomb": 6167,
      "Ġdry": 6168,
      "ĠTem": 6169,
      "Ġegg": 6170,
      "under": 6171,
      "ĠHit": 6172,
      "ĠHomer": 6173,
      "ĠEach": 6174,
      "ĠLake": 6175,
      "ĠLank": 6176,
      "ĠFarm": 6177,
      "ĠWeb": 6178,
      "Ġrub": 6179,
      "Ġchap": 6180,
      "apes": 6181,
      "ĠVis": 6182,
      "Ġphr": 6183,
      "Ġexped": 6184,
      "Ġ1942": 6185,
      "ĠProv": 6186,
      "Ġelim": 6187,
      "Ġrunning": 6188,
      "Ġrecognition": 6189,
      "Ġfrequency": 6190,
      "1901": 6191,
      "Ġoccupied": 6192,
      "Ġranked": 6193,
      "Ġcommunication": 6194,
      "Ġfreedom": 6195,
      "ĠProtestant": 6196,
      "ĠSupreme": 6197,
      "fin": 6198,
      "tics": 6199,
      "Ġsales": 6200,
      "itarian": 6201,
      "Ġbass": 6202,
      "Ġlat": 6203,
      "add": 6204,
      "ĠBoston": 6205,
      "racy": 6206,
      "ĠLar": 6207,
      "Ġcho": 6208,
      "ender": 6209,
      "Ġarmed": 6210,
      "Ġshot": 6211,
      "hedral": 6212,
      "ampion": 6213,
      "Ġoutput": 6214,
      "ĠAmes": 6215,
      "Ġsurvey": 6216,
      "Ã©e": 6217,
      "Ġstrug": 6218,
      "ĠOnline": 6219,
      "1990": 6220,
      "ĠAngeles": 6221,
      "Ġaffected": 6222,
      "Ġkingdom": 6223,
      "Ġgeomet": 6224,
      "Ġjoint": 6225,
      "Ã¨re": 6226,
      "ĠErn": 6227,
      "ĠService": 6228,
      "ĠNapole": 6229,
      "ĠRoger": 6230,
      "34": 6231,
      "IA": 6232,
      "cule": 6233,
      "kh": 6234,
      "nus": 6235,
      "wing": 6236,
      "Ġcam": 6237,
      "Ġwrest": 6238,
      "Ġfought": 6239,
      "ĠAL": 6240,
      "ĠSuch": 6241,
      "Ġnam": 6242,
      "ceived": 6243,
      "ĠBal": 6244,
      "Ġ1900": 6245,
      "Ġ1910": 6246,
      "ĠGDP": 6247,
      "opher": 6248,
      "Ġproton": 6249,
      "abeth": 6250,
      "akers": 6251,
      "ĠAld": 6252,
      "ĠChampionship": 6253,
      "Ġotherwise": 6254,
      "Ġactin": 6255,
      "Ġpries": 6256,
      "ildren": 6257,
      "Ġflat": 6258,
      "Ġcollected": 6259,
      "Ġantip": 6260,
      "Ġ1956": 6261,
      "Ġcultiv": 6262,
      "Ġarmies": 6263,
      "Ġreduction": 6264,
      "Ġcomposition": 6265,
      "Ġruns": 6266,
      "Ġepis": 6267,
      "Ġarchitecture": 6268,
      "ĠBuddhism": 6269,
      "Ġimmig": 6270,
      "Ġtribes": 6271,
      "ropolis": 6272,
      "ĠAntarctica": 6273,
      "Ġvehicles": 6274,
      "Ġinterpretation": 6275,
      "Ġillustrator": 6276,
      "Ġconnection": 6277,
      "ducation": 6278,
      "Ġstraight": 6279,
      "Ġroughly": 6280,
      "eign": 6281,
      "ko": 6282,
      "inople": 6283,
      "Ġovers": 6284,
      "Ġswe": 6285,
      "orage": 6286,
      "organ": 6287,
      "itical": 6288,
      "Ġmess": 6289,
      "eline": 6290,
      "unction": 6291,
      "Ġliber": 6292,
      "amily": 6293,
      "ivals": 6294,
      "ĠIV": 6295,
      "term": 6296,
      "ĠEston": 6297,
      "ĠJud": 6298,
      "Ġchron": 6299,
      "Ġabol": 6300,
      "Ġprison": 6301,
      "Ġsurren": 6302,
      "mann": 6303,
      "ophanes": 6304,
      "ashion": 6305,
      "Ġnearby": 6306,
      "roduction": 6307,
      "Ġadvance": 6308,
      "Ġopportun": 6309,
      "iscop": 6310,
      "Ġmassive": 6311,
      "Ġconcepts": 6312,
      "Ġdiagn": 6313,
      "Ġsongs": 6314,
      "ambigu": 6315,
      "Ġsilver": 6316,
      "Ġmaintained": 6317,
      "Ġconverted": 6318,
      "Ġchemistry": 6319,
      "ĠRomans": 6320,
      "ĠâĨ": 6321,
      "Ġsplit": 6322,
      "Ġresearchers": 6323,
      "62": 6324,
      "At": 6325,
      "after": 6326,
      "gal": 6327,
      "gar": 6328,
      "uan": 6329,
      "ycl": 6330,
      "Ġsample": 6331,
      "Ġmental": 6332,
      "Ġmaster": 6333,
      "leth": 6334,
      "ette": 6335,
      "Ġgar": 6336,
      "ĠPen": 6337,
      "ĠHor": 6338,
      "ĠGoth": 6339,
      "ĠGrant": 6340,
      "anders": 6341,
      "ĠFlor": 6342,
      "ĠFollowing": 6343,
      "ĠStat": 6344,
      "ĠVer": 6345,
      "Ġdisput": 6346,
      "Ġteaching": 6347,
      "Ġpoly": 6348,
      "issippi": 6349,
      "Ġcharged": 6350,
      "ĠAbd": 6351,
      "fully": 6352,
      "Ġ1927": 6353,
      "Ġsuccessor": 6354,
      "Ġmovie": 6355,
      "Ġviewed": 6356,
      "Ġrespond": 6357,
      "Ġlowest": 6358,
      "Ġattempts": 6359,
      "Ġbirths": 6360,
      "Ġprincipal": 6361,
      "Ġmountains": 6362,
      "Ġconduct": 6363,
      "Ġfocused": 6364,
      "Ġcopper": 6365,
      "Ġalternate": 6366,
      "Ġsuffered": 6367,
      "Ġcomponent": 6368,
      "ĠSaturn": 6369,
      "Ġrevealed": 6370,
      "Ġultimately": 6371,
      "Ġsettlement": 6372,
      "Ġchallen": 6373,
      "uisine": 6374,
      "31": 6375,
      "CA": 6376,
      "bor": 6377,
      "hire": 6378,
      "rass": 6379,
      "rees": 6380,
      "ittle": 6381,
      "Ġwalk": 6382,
      "icial": 6383,
      "ĠSemitic": 6384,
      "ĠMagn": 6385,
      "raq": 6386,
      "ĠHay": 6387,
      "Ġ1912": 6388,
      "Ġpros": 6389,
      "Ġvel": 6390,
      "Ġvoice": 6391,
      "ache": 6392,
      "Ġrivers": 6393,
      "ials": 6394,
      "Ġplatform": 6395,
      "Ġabund": 6396,
      "ikh": 6397,
      "ĠAtt": 6398,
      "ĠAgamemnon": 6399,
      "Ġelectrical": 6400,
      "Ġmonaster": 6401,
      "Ġsevere": 6402,
      "Ġcontrolled": 6403,
      "Ġreferences": 6404,
      "Ġtypical": 6405,
      "Ġvisual": 6406,
      "Ġneeds": 6407,
      "Ġhydrox": 6408,
      "ĠAssembly": 6409,
      "iberius": 6410,
      "Ġmanagement": 6411,
      "ridge": 6412,
      "Ġachieved": 6413,
      "ynamic": 6414,
      "Ġconsonants": 6415,
      "ĠConstantinople": 6416,
      "metic": 6417,
      "va": 6418,
      "vis": 6419,
      "Ġcensus": 6420,
      "Ġwear": 6421,
      "Ġbones": 6422,
      "Ġtools": 6423,
      "Ġdensity": 6424,
      "uscript": 6425,
      "ira": 6426,
      "ĠHa": 6427,
      "Ġ1914": 6428,
      "ĠLomb": 6429,
      "antly": 6430,
      "Ġring": 6431,
      "ĠUnivers": 6432,
      "Ġ32": 6433,
      "Ġprepar": 6434,
      "nDes": 6435,
      "ĠAndes": 6436,
      "Ġprocessing": 6437,
      "Ġparliament": 6438,
      "Ġpopularity": 6439,
      "ĠEliz": 6440,
      "Ġnovelist": 6441,
      "Ġscientist": 6442,
      "Ġsalam": 6443,
      "ĠiP": 6444,
      "Ġfacilities": 6445,
      "Ġengineering": 6446,
      "Ġsacr": 6447,
      "elesc": 6448,
      "Ġconstructed": 6449,
      "Ġprice": 6450,
      "Ġcrops": 6451,
      "Ġsubstance": 6452,
      "ĠAeneas": 6453,
      "ĠFriedrich": 6454,
      "ĠVogt": 6455,
      "42": 6456,
      "56": 6457,
      "bal": 6458,
      "bury": 6459,
      "|-\\": 6460,
      "Ġtail": 6461,
      "Ġawards": 6462,
      "Ġsides": 6463,
      "leep": 6464,
      "ilation": 6465,
      "Ġlie": 6466,
      "ĠSel": 6467,
      "ader": 6468,
      "ĠMov": 6469,
      "Ġgal": 6470,
      "ĠBible": 6471,
      "Ġproceed": 6472,
      "ĠLu": 6473,
      "allic": 6474,
      "Ġuniversity": 6475,
      "Ġnote": 6476,
      "Ġabacus": 6477,
      "Ġcontained": 6478,
      "Ġimag": 6479,
      "overeign": 6480,
      "Ġmodule": 6481,
      "Ġrain": 6482,
      "ĠArmstrong": 6483,
      "Ġfeat": 6484,
      "Ġauthorities": 6485,
      "Ġ1954": 6486,
      "Ġcultures": 6487,
      "Ġorganizations": 6488,
      "Ġtraditionally": 6489,
      "nAlbert": 6490,
      "Ġtranslation": 6491,
      "Ġparents": 6492,
      "clusion": 6493,
      "ĠMcC": 6494,
      "Ġopin": 6495,
      "ĠNazi": 6496,
      "Ġceremony": 6497,
      "Ġdeposits": 6498,
      "Ġmaximum": 6499,
      "ibbean": 6500,
      "Ġparallel": 6501,
      "back": 6502,
      "cen": 6503,
      "mm": 6504,
      "ters": 6505,
      "Î¿": 6506,
      "Ġwars": 6507,
      "Ġdates": 6508,
      "Ġdynasty": 6509,
      "ilis": 6510,
      "ĠSri": 6511,
      "ĠSyr": 6512,
      "etts": 6513,
      "ĠBBC": 6514,
      "ĠPost": 6515,
      "ĠThen": 6516,
      "ĠEle": 6517,
      "ĠFer": 6518,
      "ĠJon": 6519,
      "ĠJobs": 6520,
      "ishops": 6521,
      "ĠArts": 6522,
      "ĠArticles": 6523,
      "orman": 6524,
      "Ġdescent": 6525,
      "Ġappell": 6526,
      "Ġweek": 6527,
      "Ġartificial": 6528,
      "enness": 6529,
      "ĠJohnson": 6530,
      "Ġ1923": 6531,
      "Ġtempor": 6532,
      "Ġcontinues": 6533,
      "Ġelectronic": 6534,
      "Ġ1862": 6535,
      "Ġvolcan": 6536,
      "Ġcircle": 6537,
      "Ġheavily": 6538,
      "Ġholding": 6539,
      "Ġdetermine": 6540,
      "Ġessential": 6541,
      "ĠAntony": 6542,
      "nChrist": 6543,
      "ĠâĢł": 6544,
      "Ġassumed": 6545,
      "Ġarrang": 6546,
      "Ġfifth": 6547,
      "Ġrepeated": 6548,
      "ĠProgram": 6549,
      "Ġsomewhat": 6550,
      "Ġopposite": 6551,
      "ĠHitler": 6552,
      "pet": 6553,
      "ua": 6554,
      "works": 6555,
      "Ġod": 6556,
      "Ġsongwriter": 6557,
      "Ġcra": 6558,
      "Ġcited": 6559,
      "Ġcris": 6560,
      "ĠTiberius": 6561,
      "adic": 6562,
      "ĠPublic": 6563,
      "ĠEll": 6564,
      "opp": 6565,
      "ĠFar": 6566,
      "ishment": 6567,
      "ĠKent": 6568,
      "ĠAlg": 6569,
      "endar": 6570,
      "ĠStan": 6571,
      "Ġshoot": 6572,
      "ĠVan": 6573,
      "ysse": 6574,
      "Ġrelation": 6575,
      "Ġ39": 6576,
      "issance": 6577,
      "anguages": 6578,
      "Ġqual": 6579,
      "Ġwebs": 6580,
      "Ġ1936": 6581,
      "nAnt": 6582,
      "1980": 6583,
      "Ġglass": 6584,
      "rapy": 6585,
      "Ġinvolves": 6586,
      "Ġruled": 6587,
      "ĠHarvard": 6588,
      "Ġexperimental": 6589,
      "ĠPeace": 6590,
      "Ġcapture": 6591,
      "Ġdebate": 6592,
      "ĠAntoninus": 6593,
      "Ġcolonial": 6594,
      "Ġuniverse": 6595,
      "Ġbehavi": 6596,
      "Ġneighbour": 6597,
      "Ġmicro": 6598,
      "Ġinscriptions": 6599,
      "ĠScotland": 6600,
      "Ġdiverse": 6601,
      "Ġcorrect": 6602,
      "achusetts": 6603,
      "St": 6604,
      "eas": 6605,
      "pass": 6606,
      "rument": 6607,
      "hetic": 6608,
      "inosaur": 6609,
      "erted": 6610,
      "Ġcold": 6611,
      "Ġwr": 6612,
      "icide": 6613,
      "Ġbow": 6614,
      "Ġdiver": 6615,
      "ĠTal": 6616,
      "ĠSing": 6617,
      "amma": 6618,
      "iral": 6619,
      "Ġgram": 6620,
      "ĠBre": 6621,
      "ersed": 6622,
      "Ġstations": 6623,
      "ĠDomin": 6624,
      "avel": 6625,
      "ĠJournal": 6626,
      "Ġacknow": 6627,
      "Ġshall": 6628,
      "aths": 6629,
      "Ġmoder": 6630,
      "Ġmodified": 6631,
      "ucas": 6632,
      "ictional": 6633,
      "Ġfeed": 6634,
      "ĠAnders": 6635,
      "Ġeffectively": 6636,
      "nAncient": 6637,
      "Ġmineral": 6638,
      "ĠCaribbean": 6639,
      "Ġstatistics": 6640,
      "Ġcharacteristic": 6641,
      "Ġanaly": 6642,
      "Ġgoing": 6643,
      "Ġgoods": 6644,
      "Ġalbedo": 6645,
      "Ġtwice": 6646,
      "Ġfailure": 6647,
      "Ġconcentration": 6648,
      "Ġmolecules": 6649,
      "Ġsettled": 6650,
      "ĠGolden": 6651,
      "Ġquarter": 6652,
      "stanbul": 6653,
      "Ġaccompan": 6654,
      "Ġmixture": 6655,
      "OS": 6656,
      "vest": 6657,
      "wan": 6658,
      "heim": 6659,
      "hell": 6660,
      "erals": 6661,
      "Ġocean": 6662,
      "Ġcere": 6663,
      "Ġcogn": 6664,
      "eler": 6665,
      "Ġrein": 6666,
      "ĠHon": 6667,
      "ĠLM": 6668,
      "ĠLind": 6669,
      "agen": 6670,
      "ĠWars": 6671,
      "ĠNa": 6672,
      "ocal": 6673,
      "ĠOper": 6674,
      "Ġunable": 6675,
      "Ġacous": 6676,
      "Ġadiab": 6677,
      "ressive": 6678,
      "Ġamines": 6679,
      "Ġroute": 6680,
      "Ġpreced": 6681,
      "Ġsystematic": 6682,
      "Ġinstrument": 6683,
      "type": 6684,
      "Ġ1953": 6685,
      "Ġdepart": 6686,
      "Ġleads": 6687,
      "Ġslave": 6688,
      "Ġperiodic": 6689,
      "nGe": 6690,
      "isco": 6691,
      "Ġ1861": 6692,
      "while": 6693,
      "Ġprinciples": 6694,
      "Ġconsistent": 6695,
      "Ġregarding": 6696,
      "Ġtowns": 6697,
      "Ġimprove": 6698,
      "Ġlisted": 6699,
      "ĠMountains": 6700,
      "Ġemerged": 6701,
      "Ġacquired": 6702,
      "ĠLovelace": 6703,
      "ĠTechnology": 6704,
      "ĠOdysse": 6705,
      "Ġnoble": 6706,
      "Ġpilot": 6707,
      "Ġpermanent": 6708,
      "ĠWalter": 6709,
      "%)": 6710,
      "rates": 6711,
      "ani": 6712,
      "Ġsail": 6713,
      "Ġcinem": 6714,
      "Ġdim": 6715,
      "eless": 6716,
      "ĠTw": 6717,
      "ĠTar": 6718,
      "ĠTimes": 6719,
      "Ġlithium": 6720,
      "ĠSaf": 6721,
      "ĠMong": 6722,
      "ĠBol": 6723,
      "Ġonto": 6724,
      "ĠHy": 6725,
      "ĠHindu": 6726,
      "agh": 6727,
      "Ġexerc": 6728,
      "ĠJr": 6729,
      "ighter": 6730,
      "ipation": 6731,
      "Ġleaves": 6732,
      "Ġadvent": 6733,
      "Ġmanner": 6734,
      "Ġrecover": 6735,
      "Ġremark": 6736,
      "Ġextens": 6737,
      "Ġtrack": 6738,
      "ĠMarple": 6739,
      "ĠForce": 6740,
      "Ġconsiderable": 6741,
      "Ġblue": 6742,
      "Ġofficers": 6743,
      "2005": 6744,
      "Ġreducing": 6745,
      "Ġmeasures": 6746,
      "Ġparent": 6747,
      "Ġyounger": 6748,
      "Ġsalts": 6749,
      "Ġencounter": 6750,
      "taic": 6751,
      "ĠKarl": 6752,
      "ĠAhmed": 6753,
      "Ġprotection": 6754,
      "ĠBabbage": 6755,
      "Ġcategory": 6756,
      "Ġintellectual": 6757,
      "ĠHellen": 6758,
      "aturally": 6759,
      "ĠSeveral": 6760,
      "ĠLewis": 6761,
      "Is": 6762,
      "Ġfair": 6763,
      "ashes": 6764,
      "Ġly": 6765,
      "Ġthrone": 6766,
      "Ġnut": 6767,
      "ĠChe": 6768,
      "ĠMr": 6769,
      "ĠMot": 6770,
      "ĠMir": 6771,
      "ĠMurder": 6772,
      "2007": 6773,
      "ĠDist": 6774,
      "Ġorient": 6775,
      "ĠFe": 6776,
      "abled": 6777,
      "Ġunus": 6778,
      "ĠStar": 6779,
      "iege": 6780,
      "Ġenem": 6781,
      "Ġassass": 6782,
      "nEnglish": 6783,
      "Ġtransition": 6784,
      "Ġcalls": 6785,
      "Ġextension": 6786,
      "Ġtrav": 6787,
      "ĠAndy": 6788,
      "ĠAndre": 6789,
      "Ġexplan": 6790,
      "Ġperiods": 6791,
      "Ġrepresenting": 6792,
      "Ġexisting": 6793,
      "Ġprotect": 6794,
      "Ġissued": 6795,
      "ĠAirport": 6796,
      "Ġcycle": 6797,
      "Ġconductor": 6798,
      "Ġfundamental": 6799,
      "Ġsatisf": 6800,
      "Ġconcerned": 6801,
      "Ġmechanical": 6802,
      "Ġinnov": 6803,
      "Ġprepared": 6804,
      "Ġcriminal": 6805,
      "100": 6806,
      "iar": 6807,
      "ienced": 6808,
      "encies": 6809,
      "Ġcore": 6810,
      "Ġwinning": 6811,
      "Ġdated": 6812,
      "ĠTour": 6813,
      "Ġlov": 6814,
      "ĠCatal": 6815,
      "ims": 6816,
      "Ġforward": 6817,
      "Ġcong": 6818,
      "that": 6819,
      "andom": 6820,
      "Ġcoming": 6821,
      "ĠWales": 6822,
      "Ġsup": 6823,
      "dered": 6824,
      "ikido": 6825,
      "ĠAsparag": 6826,
      "Ġcoord": 6827,
      "nCom": 6828,
      "Ġtransfer": 6829,
      "Ġartistic": 6830,
      "Ġproviding": 6831,
      "ĠComputer": 6832,
      "ussian": 6833,
      "Ġcarry": 6834,
      "ĠJohann": 6835,
      "2008": 6836,
      "inois": 6837,
      "ĠCommittee": 6838,
      "boin": 6839,
      "ĠAristophanes": 6840,
      "Ġepit": 6841,
      "Ġcriticism": 6842,
      "audÃŃ": 6843,
      "ĠBelg": 6844,
      "Ġnormally": 6845,
      "Ġbeliefs": 6846,
      "Ġearthqu": 6847,
      "ĠSteve": 6848,
      "ĠMosque": 6849,
      "Ġpolarization": 6850,
      "Ġisolated": 6851,
      "unciation": 6852,
      "ĠDigital": 6853,
      "46": 6854,
      "FC": 6855,
      "carb": 6856,
      "kin": 6857,
      "oo": 6858,
      "xual": 6859,
      "ÏĤ": 6860,
      "Ġaer": 6861,
      "Ġaard": 6862,
      "Ġsust": 6863,
      "Ġsovereign": 6864,
      "alf": 6865,
      "itis": 6866,
      "Ġpseud": 6867,
      "Ġbad": 6868,
      "Ġbatter": 6869,
      "Ġbacter": 6870,
      "omorph": 6871,
      "Ġlibert": 6872,
      "ĠSher": 6873,
      "Ġnations": 6874,
      "state": 6875,
      "stone": 6876,
      "ading": 6877,
      "adow": 6878,
      "ĠMack": 6879,
      "ĠMarsh": 6880,
      "ĠIstanbul": 6881,
      "ĠBir": 6882,
      "ĠBah": 6883,
      "rav": 6884,
      "2000": 6885,
      "ĠLuther": 6886,
      "ifies": 6887,
      "Ġrational": 6888,
      "iph": 6889,
      "Ġplane": 6890,
      "ĠStock": 6891,
      "Ġcommitted": 6892,
      "Ġacting": 6893,
      "Ġplaying": 6894,
      "Ġsubstit": 6895,
      "ĠAmaranth": 6896,
      "ĠConc": 6897,
      "Ġstudent": 6898,
      "Ġtechnical": 6899,
      "Ġcapable": 6900,
      "Ġreligions": 6901,
      "Ġlinear": 6902,
      "Ġtitles": 6903,
      "Ġderiv": 6904,
      "Ġethics": 6905,
      "Ġviolence": 6906,
      "ĠAlgerian": 6907,
      "Ġantisemitic": 6908,
      "Ġconcentrated": 6909,
      "Ġmaintain": 6910,
      "Ġdialect": 6911,
      "ĠMississippi": 6912,
      "Ġharmon": 6913,
      "ĠMassachusetts": 6914,
      "Ġalcohol": 6915,
      "Ġinhabitants": 6916,
      "Ġfeaturing": 6917,
      "52": 6918,
      "bu": 6919,
      "Ġ...": 6920,
      "herent": 6921,
      "Ġsan": 6922,
      "Ġwild": 6923,
      "Ġpark": 6924,
      "ĠAff": 6925,
      "using": 6926,
      "Ġthir": 6927,
      "ĠCO": 6928,
      "ĠCorn": 6929,
      "ĠMax": 6930,
      "ĠBurg": 6931,
      "ĠBrown": 6932,
      "resh": 6933,
      "aints": 6934,
      "acent": 6935,
      "ocracy": 6936,
      "Ġrh": 6937,
      "Ġrural": 6938,
      "Ġselect": 6939,
      "ĠOran": 6940,
      "ĠOsc": 6941,
      "ĠKa": 6942,
      "Ġnothing": 6943,
      "Ġadvert": 6944,
      "Ġteach": 6945,
      "Ġjour": 6946,
      "ribute": 6947,
      "Ġassociation": 6948,
      "inding": 6949,
      "Ġtruth": 6950,
      "ilding": 6951,
      "axia": 6952,
      "Ġflower": 6953,
      "stery": 6954,
      "Ġ1932": 6955,
      "1970": 6956,
      "amaic": 6957,
      "Ġvisitors": 6958,
      "ĠConfederacy": 6959,
      "Ġunderstand": 6960,
      "going": 6961,
      "Ġdominant": 6962,
      "ĠTrojan": 6963,
      "ĠCommunion": 6964,
      "enzie": 6965,
      "nPhilos": 6966,
      "Ġrapidly": 6967,
      "Ġuncertain": 6968,
      "Ġforests": 6969,
      "ĠDenmark": 6970,
      "Ġcaesium": 6971,
      "Ġamphibians": 6972,
      "Ġdemonstrated": 6973,
      "Ġbottom": 6974,
      ".),": 6975,
      "03": 6976,
      "57": 6977,
      "EM": 6978,
      "PA": 6979,
      "bi": 6980,
      "bes": 6981,
      "oen": 6982,
      "rarian": 6983,
      "ses": 6984,
      "sch": 6985,
      "inite": 6986,
      "Ġtheology": 6987,
      "Ġcuisine": 6988,
      "Ġmist": 6989,
      "Ġ(;": 6990,
      "stream": 6991,
      "ceae": 6992,
      "adium": 6993,
      "ĠBob": 6994,
      "Ġ1911": 6995,
      "Ġwhy": 6996,
      "ĠRam": 6997,
      "acia": 6998,
      "ĠJeff": 6999,
      "Ġnotion": 7000,
      "ĠStre": 7001,
      "ĠAramaic": 7002,
      "oke": 7003,
      "Ġcancer": 7004,
      "nSch": 7005,
      "Ġassigned": 7006,
      "ifications": 7007,
      "Ġfounding": 7008,
      "crete": 7009,
      "Ġfloor": 7010,
      "Ġmonarch": 7011,
      "1601": 7012,
      "Ġlands": 7013,
      "Ġhistoric": 7014,
      "Ġdrink": 7015,
      "Ġcharacterized": 7016,
      "ĠQuran": 7017,
      "ĠAngolan": 7018,
      "Ġpatients": 7019,
      "Ġastronomers": 7020,
      "ĠWilliams": 7021,
      "Ġreplace": 7022,
      "ĠSocial": 7023,
      "ĠASCII": 7024,
      "Ġimproved": 7025,
      "Ġuniversal": 7026,
      "Ġinstitution": 7027,
      "Ġcompetition": 7028,
      "Ġdiseases": 7029,
      "Ġpurposes": 7030,
      "Ġdemonstr": 7031,
      "ĠMinor": 7032,
      "ĠBrazilian": 7033,
      "ĠNapoleon": 7034,
      "ĠEstonian": 7035,
      "Ġaccompanied": 7036,
      "37": 7037,
      "86": 7038,
      "94": 7039,
      "European": 7040,
      "cott": 7041,
      "iop": 7042,
      "kins": 7043,
      "trans": 7044,
      "Ġtren": 7045,
      "Ġsand": 7046,
      "icas": 7047,
      "Ġtourn": 7048,
      "Ġdating": 7049,
      "ĠCap": 7050,
      "amber": 7051,
      "othe": 7052,
      "ĠIli": 7053,
      "ĠIraq": 7054,
      "ĠHaw": 7055,
      "Ġstress": 7056,
      "Ġstock": 7057,
      "ĠGreg": 7058,
      "antage": 7059,
      "ĠInstead": 7060,
      "nApp": 7061,
      "ournik": 7062,
      "ĠVar": 7063,
      "Ġclin": 7064,
      "Ġcloud": 7065,
      "Ġsciences": 7066,
      "Ġconsc": 7067,
      "Ġindigenous": 7068,
      "ribed": 7069,
      "Ġsole": 7070,
      "hemist": 7071,
      "Ġflag": 7072,
      "Ġinvent": 7073,
      "ropical": 7074,
      "Ġdirectors": 7075,
      "eck": 7076,
      "aneous": 7077,
      "Ġpatron": 7078,
      "Ġopening": 7079,
      "Ġruler": 7080,
      "ĠMedal": 7081,
      "ĠPerse": 7082,
      "Ġnegot": 7083,
      "ĠDaniel": 7084,
      "Ġdomestic": 7085,
      "Ġadults": 7086,
      "Ġportrayed": 7087,
      "Ġtwenty": 7088,
      "ĠStephen": 7089,
      "cyclop": 7090,
      "92": 7091,
      "EC": 7092,
      "]\\": 7093,
      "iency": 7094,
      "vements": 7095,
      "western": 7096,
      "Ġce": 7097,
      "arth": 7098,
      "Ġfashion": 7099,
      "roll": 7100,
      "Ġmorph": 7101,
      "Ġharm": 7102,
      "Ġhospital": 7103,
      "ĠTun": 7104,
      "Ġthick": 7105,
      "ĠSund": 7106,
      "imony": 7107,
      "lywood": 7108,
      "ulating": 7109,
      "Ġstyles": 7110,
      "Ġ1913": 7111,
      "ĠEur": 7112,
      "Ġproof": 7113,
      "abaster": 7114,
      "aine": 7115,
      "quarters": 7116,
      "pper": 7117,
      "nAugust": 7118,
      "Ġarrest": 7119,
      "wegian": 7120,
      "iously": 7121,
      "Ġsubt": 7122,
      "aret": 7123,
      "iversary": 7124,
      "Ġapart": 7125,
      "ussia": 7126,
      "roscop": 7127,
      "Ġdescend": 7128,
      "1600": 7129,
      "ynom": 7130,
      "Ġlegend": 7131,
      "Ġstatue": 7132,
      "1989": 7133,
      "ĠMusic": 7134,
      "Ġrestric": 7135,
      "ĠAngu": 7136,
      "ethyl": 7137,
      "Ġcrime": 7138,
      "Ġinvolving": 7139,
      "ĠAnglo": 7140,
      "Ġmanaged": 7141,
      "ĠCoast": 7142,
      "Ġgrav": 7143,
      "rastructure": 7144,
      "ĠGrace": 7145,
      "Ġrailway": 7146,
      "ĠMuslims": 7147,
      "ĠKorea": 7148,
      "ĠTerrit": 7149,
      "Ġadministration": 7150,
      "ĠOrganization": 7151,
      "Ġhypothesis": 7152,
      "Ġsubstantial": 7153,
      "ĠYoung": 7154,
      "Ġanatomy": 7155,
      "ennessee": 7156,
      "93": 7157,
      "ga": 7158,
      "hydro": 7159,
      "pan": 7160,
      "vol": 7161,
      "Ġtim": 7162,
      "Ġtelesc": 7163,
      "onomy": 7164,
      "itudes": 7165,
      "Ġanagram": 7166,
      "Ġcrown": 7167,
      "icular": 7168,
      "Ġpan": 7169,
      "Ġfram": 7170,
      "Ġmor": 7171,
      "Ġdie": 7172,
      "ilaus": 7173,
      "stra": 7174,
      "ĠCle": 7175,
      "idae": 7176,
      "ĠMajor": 7177,
      "ĠMoses": 7178,
      "2015": 7179,
      "ĠFa": 7180,
      "ĠFeder": 7181,
      "abakh": 7182,
      "Ġrandom": 7183,
      "nAc": 7184,
      "ighth": 7185,
      "rani": 7186,
      "ĠChap": 7187,
      "Ġyouth": 7188,
      "angel": 7189,
      "Ġspelling": 7190,
      "Ġagnost": 7191,
      "Ġflowers": 7192,
      "ĠAgricult": 7193,
      "Ġinstruction": 7194,
      "Ġinstructions": 7195,
      "Ġentry": 7196,
      "Ġlocations": 7197,
      "Ġ1951": 7198,
      "curs": 7199,
      "Ġdrum": 7200,
      "Ġapproved": 7201,
      "Ġshowing": 7202,
      "def": 7203,
      "ĠEarl": 7204,
      "1963": 7205,
      "ossible": 7206,
      "ĠPlay": 7207,
      "Ġastronomy": 7208,
      "Ġastronomical": 7209,
      "ĠCommission": 7210,
      "Ġrenew": 7211,
      "ĠDoug": 7212,
      "Ġcloser": 7213,
      "Ġreviews": 7214,
      "Ġamounts": 7215,
      "Ġdetails": 7216,
      "Ġtransmission": 7217,
      "Ġprecip": 7218,
      "ĠAleman": 7219,
      "Ġinterpreted": 7220,
      "utenant": 7221,
      "ournikova": 7222,
      "mas": 7223,
      "tes": 7224,
      "then": 7225,
      "uate": 7226,
      "Å«": 7227,
      "Ġtet": 7228,
      "inct": 7229,
      "Ġsalt": 7230,
      "alism": 7231,
      "Ġcel": 7232,
      "Ġbrand": 7233,
      "ĠAth": 7234,
      "uses": 7235,
      "ĠTri": 7236,
      "ĠCer": 7237,
      "ĠMoh": 7238,
      "isted": 7239,
      "owa": 7240,
      "ĠHerm": 7241,
      "agne": 7242,
      "ĠFederal": 7243,
      "ĠWood": 7244,
      "ĠWork": 7245,
      "ĠNet": 7246,
      "ĠNero": 7247,
      "Ġitems": 7248,
      "ĠJones": 7249,
      "Ġrif": 7250,
      "Ġchose": 7251,
      "Ġarith": 7252,
      "duction": 7253,
      "Ġdisorders": 7254,
      "Ġcommem": 7255,
      "Ġrow": 7256,
      "Ġrocks": 7257,
      "Ġpoets": 7258,
      "ucky": 7259,
      "Ġaccident": 7260,
      "Ġaccused": 7261,
      "Ġaccomm": 7262,
      "Ġpossibility": 7263,
      "Ġoppon": 7264,
      "zech": 7265,
      "Ġoriginated": 7266,
      "idden": 7267,
      "Ġportion": 7268,
      "Ġdecline": 7269,
      "Ġconcert": 7270,
      "Ġmachines": 7271,
      "Ġbrothers": 7272,
      "Ġcolonies": 7273,
      "ĠSamuel": 7274,
      "Ġmythology": 7275,
      "Ġaxioms": 7276,
      "ĠPortugal": 7277,
      "ĠFrancisco": 7278,
      "Ġbitumen": 7279,
      "Ġoxidation": 7280,
      "Ġproportion": 7281,
      "Ġaccommod": 7282,
      "41": 7283,
      "but": 7284,
      "eor": 7285,
      "iat": 7286,
      "law": 7287,
      "rary": 7288,
      "sis": 7289,
      "uct": 7290,
      "uff": 7291,
      "Î½": 7292,
      "alysis": 7293,
      "Ġbul": 7294,
      "Ġdism": 7295,
      "Ġhyd": 7296,
      "Ġreaching": 7297,
      "ĠCro": 7298,
      "char": 7299,
      "ĠPop": 7300,
      "osph": 7301,
      "Ġstim": 7302,
      "Ġ1917": 7303,
      "2004": 7304,
      "ĠLate": 7305,
      "Ġcomed": 7306,
      "ĠWater": 7307,
      "ategy": 7308,
      "Ġrig": 7309,
      "ĠInternet": 7310,
      "illing": 7311,
      "ĠAnth": 7312,
      "ĠAnnal": 7313,
      "ubles": 7314,
      "Ġpolynom": 7315,
      "ahar": 7316,
      "ennium": 7317,
      "ĠMaria": 7318,
      "Ġ75": 7319,
      "iquity": 7320,
      "Ġstrategy": 7321,
      "Ġbroke": 7322,
      "1976": 7323,
      "Ġpatent": 7324,
      "Ġargues": 7325,
      "Ġtreaty": 7326,
      "Ġobservations": 7327,
      "nAss": 7328,
      "Ġlearned": 7329,
      "Ġdominated": 7330,
      "ĠDemocratic": 7331,
      "Ġgradually": 7332,
      "Ġmouthw": 7333,
      "ĠFrancis": 7334,
      "Ġnarrow": 7335,
      "Ġsafety": 7336,
      "Ġinstruments": 7337,
      "iblical": 7338,
      "ambiguation": 7339,
      "ĠIliad": 7340,
      "06": 7341,
      "91": 7342,
      "cow": 7343,
      "long": 7344,
      "lik": 7345,
      "lock": 7346,
      "ped": 7347,
      "power": 7348,
      "ati": 7349,
      "Ġsed": 7350,
      "asks": 7351,
      "Ġmart": 7352,
      "ushed": 7353,
      "Ġlic": 7354,
      "Ġlaid": 7355,
      "stad": 7356,
      "amation": 7357,
      "ĠMach": 7358,
      "igation": 7359,
      "ĠGaudÃŃ": 7360,
      "ĠLog": 7361,
      "ĠDam": 7362,
      "Ġvote": 7363,
      "ĠKen": 7364,
      "ĠAlnus": 7365,
      "Ġcompound": 7366,
      "itional": 7367,
      "apse": 7368,
      "Ġcontributed": 7369,
      "Ġshif": 7370,
      "okk": 7371,
      "Ġalloy": 7372,
      "Ġconsult": 7373,
      "Ġoverl": 7374,
      "Ġray": 7375,
      "Ġouter": 7376,
      "ĠAustroasiatic": 7377,
      "Ġexposure": 7378,
      "ĠLeon": 7379,
      "pected": 7380,
      "tila": 7381,
      "venth": 7382,
      "Ġdesigner": 7383,
      "1981": 7384,
      "Ġdivine": 7385,
      "2006": 7386,
      "1945": 7387,
      "ĠRoad": 7388,
      "Ġtitled": 7389,
      "Ġformerly": 7390,
      "ĠTurkic": 7391,
      "Ġswim": 7392,
      "fficial": 7393,
      "Ġaccounts": 7394,
      "ĠBelgian": 7395,
      "mediate": 7396,
      "Ġdocuments": 7397,
      "ĠSimilar": 7398,
      "Ġadministrative": 7399,
      "Ġvehicle": 7400,
      "ĠClaudius": 7401,
      "Ġacknowled": 7402,
      "%.": 7403,
      "51": 7404,
      "German": 7405,
      "SM": 7406,
      "oa": 7407,
      "rade": 7408,
      "Ġaqu": 7409,
      "hered": 7410,
      "eric": 7411,
      "rehens": 7412,
      "Ġsa": 7413,
      "Ġcab": 7414,
      "icago": 7415,
      "Ġfine": 7416,
      "Ġtoxic": 7417,
      "Ġhop": 7418,
      "ura": 7419,
      "olis": 7420,
      "ĠSid": 7421,
      "ĠSign": 7422,
      "Ġnom": 7423,
      "Ġnaturally": 7424,
      "stances": 7425,
      "ĠCab": 7426,
      "ador": 7427,
      "adel": 7428,
      "ĠHans": 7429,
      "Ġstrict": 7430,
      "ĠEs": 7431,
      "Ġven": 7432,
      "rome": 7433,
      "ĠNear": 7434,
      "ĠNatural": 7435,
      "Ġhearing": 7436,
      "Ġabalone": 7437,
      "Ġmanif": 7438,
      "Ġpartly": 7439,
      "Ġampl": 7440,
      "Ġformally": 7441,
      "Ġevolved": 7442,
      "Ġpreferred": 7443,
      "Ġrecip": 7444,
      "ĠAttila": 7445,
      "Ġattached": 7446,
      "Ġpopulations": 7447,
      "Ġextract": 7448,
      "ĠAbsal": 7449,
      "Ġleadership": 7450,
      "1986": 7451,
      "Ġastronomer": 7452,
      "Ġ1908": 7453,
      "Ġsubjects": 7454,
      "ĠKarp": 7455,
      "ĠJulius": 7456,
      "Ġfellow": 7457,
      "Ġisotopes": 7458,
      "Ġdamage": 7459,
      "Ġborrow": 7460,
      "ĠSecretary": 7461,
      "Ġfossil": 7462,
      "ĠSparta": 7463,
      "ĠâĨĴ": 7464,
      "85": 7465,
      "cher": 7466,
      "down": 7467,
      "leton": 7468,
      "Ġhier": 7469,
      "elve": 7470,
      "ĠTennessee": 7471,
      "stract": 7472,
      "otal": 7473,
      "Ġbeings": 7474,
      "ĠBav": 7475,
      "emic": 7476,
      "2011": 7477,
      "ĠRem": 7478,
      "ĠFil": 7479,
      "ifice": 7480,
      "ĠJos": 7481,
      "Ġselected": 7482,
      "ĠAlboin": 7483,
      "Ġcomplic": 7484,
      "ĠChile": 7485,
      "Ġalloys": 7486,
      "Ġneither": 7487,
      "Ġschem": 7488,
      "Ġroads": 7489,
      "ysical": 7490,
      "Ġtrig": 7491,
      "urop": 7492,
      "Ġpublisher": 7493,
      "Ġnews": 7494,
      "ĠConn": 7495,
      "nMost": 7496,
      "Ġstudio": 7497,
      "Ġtermin": 7498,
      "Ġ1935": 7499,
      "ĠMarvel": 7500,
      "pective": 7501,
      "Ġexperiences": 7502,
      "Ġexperienced": 7503,
      "Ġoperated": 7504,
      "Ġradical": 7505,
      "Ġrestrict": 7506,
      "Ġmyst": 7507,
      "ĠDavis": 7508,
      "Ġpredicted": 7509,
      "Ġindicated": 7510,
      "Ġindicates": 7511,
      "ĠADA": 7512,
      "Ġquantities": 7513,
      "Ġabbot": 7514,
      "Ġsurvived": 7515,
      "ĠĠĠĠĠĠĠĠĠĠĠĠĠĠĠĠ": 7516,
      "ĠMoscow": 7517,
      "Ġcontributions": 7518,
      "Ġcrystal": 7519,
      "Ġalgebraic": 7520,
      "Ġdrawn": 7521,
      "ĠIBM": 7522,
      "Ġrestaurants": 7523,
      "ĠPierre": 7524,
      "ĠFrederick": 7525,
      "ĠIllinois": 7526,
      "ĠElizabeth": 7527,
      "ĠKarpov": 7528,
      "67": 7529,
      "Ap": 7530,
      "no": 7531,
      "rations": 7532,
      "rors": 7533,
      "Äĵ": 7534,
      "Î¹": 7535,
      "orous": 7536,
      "alent": 7537,
      "Ġinse": 7538,
      "Ġpapers": 7539,
      "Ġfestival": 7540,
      "Ġhair": 7541,
      "ĠTay": 7542,
      "unch": 7543,
      "Ġlies": 7544,
      "Ġloyal": 7545,
      "ĠSon": 7546,
      "ules": 7547,
      "ulus": 7548,
      "oto": 7549,
      "ĠHot": 7550,
      "ĠHill": 7551,
      "Ġconj": 7552,
      "ĠRh": 7553,
      "agle": 7554,
      "ĠOm": 7555,
      "Ġdisag": 7556,
      "ruce": 7557,
      "Ġproduces": 7558,
      "Ġpref": 7559,
      "Ġpoems": 7560,
      "Ġwrites": 7561,
      "Ġtheme": 7562,
      "Ġcarrier": 7563,
      "ĠIsa": 7564,
      "Ġanimated": 7565,
      "ĠOnly": 7566,
      "Ġcorpor": 7567,
      "iveness": 7568,
      "1962": 7569,
      "ĠCharl": 7570,
      "Ġpassing": 7571,
      "Ġtelephone": 7572,
      "Ġmulti": 7573,
      "ĠPhilipp": 7574,
      "Ġattacked": 7575,
      "Ġfarming": 7576,
      "Ġexecuted": 7577,
      "Ġrequirements": 7578,
      "ĠSeries": 7579,
      "Ġdetailed": 7580,
      "Ġarranged": 7581,
      "ĠAbbey": 7582,
      "ĠJustice": 7583,
      "speaking": 7584,
      "Ġtheologian": 7585,
      "ĠAbsalom": 7586,
      "zen": 7587,
      "Ãł": 7588,
      "Ġtur": 7589,
      "icks": 7590,
      "Ġpione": 7591,
      "Ġfr": 7592,
      "ĠSyn": 7593,
      "ĠSoutheast": 7594,
      "eters": 7595,
      "etime": 7596,
      "Ġbear": 7597,
      "ĠGames": 7598,
      "ĠRail": 7599,
      "ĠLt": 7600,
      "ĠLong": 7601,
      "ĠLyn": 7602,
      "ĠWat": 7603,
      "nAll": 7604,
      "ritish": 7605,
      "ĠChicago": 7606,
      "Ġmanuscript": 7607,
      "Ġperfect": 7608,
      "Ġscene": 7609,
      "Ġ33": 7610,
      "Ġobl": 7611,
      "nPol": 7612,
      "ĠArmin": 7613,
      "Ġsingles": 7614,
      "azz": 7615,
      "ĠChristopher": 7616,
      "Ġmatches": 7617,
      "nHistor": 7618,
      "Ġowned": 7619,
      "Ġeconomist": 7620,
      "Ġrequest": 7621,
      "1972": 7622,
      "1979": 7623,
      "1991": 7624,
      "Ġcomputing": 7625,
      "Ġexisted": 7626,
      "Ġcombat": 7627,
      "Ġabsence": 7628,
      "ictionary": 7629,
      "Ġconfirmed": 7630,
      "Ġcalendar": 7631,
      "Ġruling": 7632,
      "Ã¼r": 7633,
      "Ġdistinction": 7634,
      "ĠCaucas": 7635,
      "Ġtransportation": 7636,
      "Ġconquest": 7637,
      "ĠNorwegian": 7638,
      "ĠOlympic": 7639,
      "Ġrarely": 7640,
      "Ġdistinguish": 7641,
      "Ġconsonant": 7642,
      "Ġcategories": 7643,
      "Ġsportsc": 7644,
      "ĠCarolina": 7645,
      "ĠBaku": 7646,
      "Ġaltruism": 7647,
      "Ġescape": 7648,
      "Ġphrase": 7649,
      "Ġpriests": 7650,
      "ĠStreet": 7651,
      "AM": 7652,
      "SC": 7653,
      "car": 7654,
      "language": 7655,
      "pent": 7656,
      "produ": 7657,
      "ĠâĢĶ": 7658,
      "aten": 7659,
      "itations": 7660,
      "Ġbud": 7661,
      "Ġbishops": 7662,
      "ĠSav": 7663,
      "ĠCyp": 7664,
      "otan": 7665,
      "Ġgain": 7666,
      "ĠPass": 7667,
      "Ġstret": 7668,
      "ĠGerm": 7669,
      "ĠLil": 7670,
      "ĠNik": 7671,
      "Ġataxia": 7672,
      "abil": 7673,
      "ĠJan": 7674,
      "oca": 7675,
      "ogy": 7676,
      "Ġamaranth": 7677,
      "Ġagree": 7678,
      "Ġvariation": 7679,
      "ylic": 7680,
      "Ġdepicted": 7681,
      "ĠOrig": 7682,
      "Ġvalley": 7683,
      "iterature": 7684,
      "Ġexplos": 7685,
      "ĠAllen": 7686,
      "1997": 7687,
      "1960": 7688,
      "Ġidentify": 7689,
      "piration": 7690,
      "Ġillness": 7691,
      "cription": 7692,
      "Ġdenomin": 7693,
      "burgh": 7694,
      "ĠMoroc": 7695,
      "Ġordinary": 7696,
      "Ġobtain": 7697,
      "ĠIranian": 7698,
      "Ġdistinguished": 7699,
      "Ġpatterns": 7700,
      "Ġemphasis": 7701,
      "Ġadjacent": 7702,
      "Ġpieces": 7703,
      "ĠForeign": 7704,
      "ĠCollins": 7705,
      "Ġoccasionally": 7706,
      "claimed": 7707,
      "ĠOffice": 7708,
      "disambiguation": 7709,
      "Ġwrestler": 7710,
      "Ġcrisis": 7711,
      "ĠAmaranthus": 7712,
      "Ġsportscaster": 7713,
      "02": 7714,
      "89": 7715,
      "ba": 7716,
      "lan": 7717,
      "Ġtun": 7718,
      "inations": 7719,
      "Ġtheor": 7720,
      "Ġbirds": 7721,
      "ĠAz": 7722,
      "role": 7723,
      "ilk": 7724,
      "Ġreality": 7725,
      "ĠTit": 7726,
      "Ġnick": 7727,
      "standing": 7728,
      "ĠCat": 7729,
      "aments": 7730,
      "ĠMars": 7731,
      "ĠHospital": 7732,
      "ĠGood": 7733,
      "ĠDion": 7734,
      "agement": 7735,
      "aven": 7736,
      "ĠWrit": 7737,
      "Ġhence": 7738,
      "ogue": 7739,
      "ipher": 7740,
      "aka": 7741,
      "aki": 7742,
      "ritics": 7743,
      "eller": 7744,
      "Ġcompl": 7745,
      "izon": 7746,
      "ignment": 7747,
      "rics": 7748,
      "Ġroof": 7749,
      "Ġjob": 7750,
      "Ġattend": 7751,
      "orno": 7752,
      "ĠDeath": 7753,
      "Ġtrain": 7754,
      "Ġfollowers": 7755,
      "aurus": 7756,
      "ĠPhoen": 7757,
      "ĠAndrew": 7758,
      "ĠClub": 7759,
      "1975": 7760,
      "Ġstanding": 7761,
      "Ġvisible": 7762,
      "2002": 7763,
      "2009": 7764,
      "Ġabscess": 7765,
      "attles": 7766,
      "Ġmerch": 7767,
      "Ġtaxes": 7768,
      "Ġconsisted": 7769,
      "Ġcriticized": 7770,
      "Ġmagic": 7771,
      "Ġestimates": 7772,
      "Ġfavour": 7773,
      "Ġdiscussed": 7774,
      "Ġsuffering": 7775,
      "Ġdiplomat": 7776,
      "Ġexactly": 7777,
      "ĠVietnam": 7778,
      "Ġappropriate": 7779,
      "Ġunusual": 7780,
      "'.": 7781,
      "FI": 7782,
      "cers": 7783,
      "har": 7784,
      "top": 7785,
      "ÏĦ": 7786,
      "onial": 7787,
      "alu": 7788,
      "Ġansw": 7789,
      "Ġwaters": 7790,
      "Ġfat": 7791,
      "Ġfest": 7792,
      "Ġfaced": 7793,
      "unte": 7794,
      "ĠSic": 7795,
      "ĠIowa": 7796,
      "Ġalum": 7797,
      "ĠHad": 7798,
      "ĠHokk": 7799,
      "Ġ1916": 7800,
      "2012": 7801,
      "2013": 7802,
      "ĠRod": 7803,
      "ĠDynasty": 7804,
      "ĠFact": 7805,
      "iak": 7806,
      "Ġsuicide": 7807,
      "Ġexcess": 7808,
      "Ġheight": 7809,
      "Ġchampion": 7810,
      "place": 7811,
      "ĠThrough": 7812,
      "Ġmodulation": 7813,
      "Ġfoundation": 7814,
      "Ġvariance": 7815,
      "ĠArminian": 7816,
      "ĠAgatha": 7817,
      "ĠIndo": 7818,
      "Ġends": 7819,
      "Ġfeet": 7820,
      "Ġanything": 7821,
      "ometimes": 7822,
      "Ġexplo": 7823,
      "ĠAllah": 7824,
      "Ġchildhood": 7825,
      "1964": 7826,
      "apping": 7827,
      "ĠEgyptians": 7828,
      "Ġ1906": 7829,
      "Ã¶r": 7830,
      "Ġjoin": 7831,
      "Ġrenamed": 7832,
      "Ġcoastal": 7833,
      "Ġcopies": 7834,
      "Ġpolicies": 7835,
      "ĠPalace": 7836,
      "lemagne": 7837,
      "Ġmolecular": 7838,
      "Ġprices": 7839,
      "Ġsusp": 7840,
      "capital": 7841,
      "Ġdropped": 7842,
      "ĠDerleth": 7843,
      "iscopal": 7844,
      "Ġveloc": 7845,
      "Ġwebsite": 7846,
      "Ġarithmetic": 7847,
      "Ġcommemor": 7848,
      "ĠHokkaid": 7849,
      "borg": 7850,
      "chen": 7851,
      "des": 7852,
      "gon": 7853,
      "Î»": 7854,
      "Ġom": 7855,
      "isot": 7856,
      "Ġinform": 7857,
      "Ġdrop": 7858,
      "ĠTy": 7859,
      "unk": 7860,
      "ĠSong": 7861,
      "ĠSolar": 7862,
      "ĠCop": 7863,
      "ĠCup": 7864,
      "etry": 7865,
      "cht": 7866,
      "idium": 7867,
      "imen": 7868,
      "ulates": 7869,
      "ĠMess": 7870,
      "ĠPra": 7871,
      "ĠPubl": 7872,
      "ĠPto": 7873,
      "ĠEqu": 7874,
      "ĠGi": 7875,
      "ĠLine": 7876,
      "ifican": 7877,
      "ĠNH": 7878,
      "ĠKal": 7879,
      "asters": 7880,
      "ĠThird": 7881,
      "Ġmetaph": 7882,
      "Ġinterior": 7883,
      "Ġvariab": 7884,
      "Ġweb": 7885,
      "nEtymology": 7886,
      "thetic": 7887,
      "nModern": 7888,
      "gery": 7889,
      "Ġreputation": 7890,
      "Ġimpossible": 7891,
      "Ġdecor": 7892,
      "Ġdecade": 7893,
      "Ġmonks": 7894,
      "annel": 7895,
      "Ġreflection": 7896,
      "Ġclasses": 7897,
      "Ġparam": 7898,
      "1985": 7899,
      "1977": 7900,
      "1999": 7901,
      "Ġpromote": 7902,
      "Ġpainting": 7903,
      "Ġ1860": 7904,
      "Ġ1863": 7905,
      "ĠCentre": 7906,
      "Ġprotons": 7907,
      "Ġportra": 7908,
      "Ġ1901": 7909,
      "Ġ1905": 7910,
      "Ġinterests": 7911,
      "Ġofficials": 7912,
      "Ġcontinental": 7913,
      "Ġsuperior": 7914,
      "Ġplanets": 7915,
      "Ġdifficulty": 7916,
      "Ġrelationships": 7917,
      "Ġmagnetic": 7918,
      "Ġdegrees": 7919,
      "Ġassistance": 7920,
      "Ġadaptation": 7921,
      "Ġsuccessfully": 7922,
      "Ġachieve": 7923,
      "Ġconquered": 7924,
      "Ġeye": 7925,
      "ĠVenus": 7926,
      "ĠAgesilaus": 7927,
      "enaissance": 7928,
      "ĠKennedy": 7929,
      "Ġnewspaper": 7930,
      "Ġeggs": 7931,
      "ificance": 7932,
      "05": 7933,
      "61": 7934,
      "NH": 7935,
      "father": 7936,
      "gh": 7937,
      "lines": 7938,
      "wed": 7939,
      "Ġ|": 7940,
      "ĠâĪĴ": 7941,
      "Ġwa": 7942,
      "aration": 7943,
      "Ġfilled": 7944,
      "Ġbone": 7945,
      "roid": 7946,
      "usal": 7947,
      "Ġhall": 7948,
      "ĠCel": 7949,
      "ĠCzech": 7950,
      "chang": 7951,
      "ivia": 7952,
      "ĠProp": 7953,
      "ĠGide": 7954,
      "ĠFund": 7955,
      "Ġunion": 7956,
      "Ġunless": 7957,
      "Ġplate": 7958,
      "Ġplague": 7959,
      "Ġmanip": 7960,
      "ruption": 7961,
      "nInternational": 7962,
      "Ġphil": 7963,
      "Ġtrian": 7964,
      "ĠYou": 7965,
      "Ġ400": 7966,
      "Ġvaries": 7967,
      "Ġvariations": 7968,
      "flu": 7969,
      "incial": 7970,
      "Ġedited": 7971,
      "Ġstrateg": 7972,
      "Ġstatements": 7973,
      "Ġannually": 7974,
      "Ġalongside": 7975,
      "Ġdestruction": 7976,
      "span": 7977,
      "Ġmerely": 7978,
      "Ġemployees": 7979,
      "Ġhosted": 7980,
      "nChar": 7981,
      "Ġsurviving": 7982,
      "Ġbenefit": 7983,
      "Ġsculptor": 7984,
      "ĠBetween": 7985,
      "ĠSpecial": 7986,
      "Ġpaintings": 7987,
      "Ġearthquake": 7988,
      "ĠSunday": 7989,
      "ĠAnnales": 7990,
      "83": 7991,
      "come": 7992,
      "don": 7993,
      "fess": 7994,
      "iology": 7995,
      "upt": 7996,
      "Ġsamples": 7997,
      "Ġfer": 7998,
      "Ġdoll": 7999,
      "elian": 8000,
      "olas": 8001,
      "Ġ(,": 8002,
      "ĠCart": 8003,
      "ethe": 8004,
      "eton": 8005,
      "ĠMaur": 8006,
      "ĠBenn": 8007,
      "iants": 8008,
      "ĠHan": 8009,
      "ĠHal": 8010,
      "ĠHipp": 8011,
      "Ġconvention": 8012,
      "ĠGh": 8013,
      "2010": 8014,
      "agg": 8015,
      "ifer": 8016,
      "iaceae": 8017,
      "Ġdeaf": 8018,
      "Ġcomic": 8019,
      "ĠAnch": 8020,
      "aste": 8021,
      "ruck": 8022,
      "ĠEnd": 8023,
      "Ġrelief": 8024,
      "Ġgrown": 8025,
      "Ġrecording": 8026,
      "Ġattended": 8027,
      "nPro": 8028,
      "ĠAbner": 8029,
      "Ġexpensive": 8030,
      "nHowever": 8031,
      "Ġlongest": 8032,
      "monium": 8033,
      "Ġequation": 8034,
      "nAnother": 8035,
      "Ġmarine": 8036,
      "plete": 8037,
      "1971": 8038,
      "1992": 8039,
      "Ġcapacity": 8040,
      "Ġadvantage": 8041,
      "Ġcontinuous": 8042,
      "Ġrepresentation": 8043,
      "Ġincident": 8044,
      "Ġargon": 8045,
      "ymns": 8046,
      "Ġprotected": 8047,
      "Ġinfrastructure": 8048,
      "Ġlogical": 8049,
      "Ġabortions": 8050,
      "Ġuniversities": 8051,
      "ĠControl": 8052,
      "Ġmechanics": 8053,
      "Ġprize": 8054,
      "ĠMilne": 8055,
      "Ġregularly": 8056,
      "Ġbonds": 8057,
      "Ġlabel": 8058,
      "Ġslowly": 8059,
      "Ġhundreds": 8060,
      "Ġattracted": 8061,
      "Ġranging": 8062,
      "Ġalmonds": 8063,
      "Ġincorporated": 8064,
      "Ġconventional": 8065,
      "Ġatmosphere": 8066,
      "ĠKentucky": 8067,
      "ĠLtd": 8068,
      "BS": 8069,
      "CH": 8070,
      "since": 8071,
      "onom": 8072,
      "isa": 8073,
      "Ġdu": 8074,
      "Ġnone": 8075,
      "otton": 8076,
      "raine": 8077,
      "âĢĿ": 8078,
      "ĠPel": 8079,
      "ĠPenn": 8080,
      "Ġalabaster": 8081,
      "osius": 8082,
      "Ġstaff": 8083,
      "Ġ1915": 8084,
      "Ġ1904": 8085,
      "ĠRos": 8086,
      "ĠNum": 8087,
      "Ġexport": 8088,
      "ĠKer": 8089,
      "ĠKournikova": 8090,
      "ika": 8091,
      "oked": 8092,
      "Ġclim": 8093,
      "ĠEncyclop": 8094,
      "Ġdesire": 8095,
      "ieth": 8096,
      "Ġdoub": 8097,
      "Ġcoal": 8098,
      "Ġtransferred": 8099,
      "Ġposit": 8100,
      "Ġgenerate": 8101,
      "Ġsurf": 8102,
      "Ġtrained": 8103,
      "ĠIndones": 8104,
      "Ġconstitu": 8105,
      "ĠScient": 8106,
      "enez": 8107,
      "Ġreflected": 8108,
      "Ġpersonnel": 8109,
      "Ġengaged": 8110,
      "1978": 8111,
      "ĠTherefore": 8112,
      "1942": 8113,
      "arnation": 8114,
      "ĠCharlemagne": 8115,
      "Ġeducational": 8116,
      "Ġbiological": 8117,
      "Ġchanging": 8118,
      "Ġheavier": 8119,
      "Ġcaptain": 8120,
      "Ġcontinent": 8121,
      "ĠHollywood": 8122,
      "Ġanarchist": 8123,
      "Ġsacred": 8124,
      "Ġkinds": 8125,
      "Ġpronunciation": 8126,
      "ĠMarcus": 8127,
      "Ġrotation": 8128,
      "Ġisotope": 8129,
      "Ġcredited": 8130,
      "Ġchloride": 8131,
      "Ġprocedure": 8132,
      "Ġconversion": 8133,
      "ĠFurthermore": 8134,
      "ĠAlexandria": 8135,
      "Ġexplicitly": 8136,
      "Ġrebellion": 8137,
      "ĠTemple": 8138,
      "Ġopinion": 8139,
      "Ġrestricted": 8140,
      "roleum": 8141,
      "CM": 8142,
      "bar": 8143,
      "cus": 8144,
      "gence": 8145,
      "jection": 8146,
      "phe": 8147,
      "uction": 8148,
      "vant": 8149,
      "Ġtalk": 8150,
      "enger": 8151,
      "ĠAT": 8152,
      "struct": 8153,
      "ĠCr": 8154,
      "ĠLo": 8155,
      "ĠLud": 8156,
      "ĠLib": 8157,
      "ĠLady": 8158,
      "ĠFair": 8159,
      "ĠAnaly": 8160,
      "Ġworth": 8161,
      "ĠAmericas": 8162,
      "ĠThree": 8163,
      "Ġscenes": 8164,
      "Ġdesert": 8165,
      "Ġmetropolitan": 8166,
      "Ġemig": 8167,
      "ĠSecurity": 8168,
      "Ġspecimens": 8169,
      "Ġpublishing": 8170,
      "Ġoffers": 8171,
      "ĠAgency": 8172,
      "Ġserves": 8173,
      "Ġwarri": 8174,
      "Ġproposal": 8175,
      "Ġsupporting": 8176,
      "Ġdescribing": 8177,
      "rises": 8178,
      "Ġstatistical": 8179,
      "Ġbackground": 8180,
      "1993": 8181,
      "nGerman": 8182,
      "Ġneedles": 8183,
      "1954": 8184,
      "Ġrising": 8185,
      "Ġtourism": 8186,
      "Ġhousehold": 8187,
      "Ġhardware": 8188,
      "Ġviolent": 8189,
      "Ġcosts": 8190,
      "Ġfarmers": 8191,
      "Ġappoint": 8192,
      "Ġsteps": 8193,
      "Ġpronounced": 8194,
      "Ġsynthesis": 8195,
      "Ġphenomena": 8196,
      "Ġcircumstances": 8197,
      "Austral": 8198,
      "ĠToday": 8199,
      "Ġwinners": 8200,
      "Ġminimum": 8201,
      "ĠProvince": 8202,
      "ĠMackenzie": 8203,
      "bel": 8204,
      "jamin": 8205,
      "zy": 8206,
      "Ïģ": 8207,
      "Ġtact": 8208,
      "heastern": 8209,
      "Ġtherapy": 8210,
      "Ġsell": 8211,
      "Ġsounds": 8212,
      "esis": 8213,
      "itled": 8214,
      "Ġchess": 8215,
      "arks": 8216,
      "Ġboy": 8217,
      "ĠAES": 8218,
      "ctu": 8219,
      "ĠSol": 8220,
      "ĠSac": 8221,
      "Ġnort": 8222,
      "Ġnaval": 8223,
      "ĠCass": 8224,
      "etics": 8225,
      "ima": 8226,
      "ĠBus": 8227,
      "ĠBig": 8228,
      "ĠPot": 8229,
      "rix": 8230,
      "Ġunsu": 8231,
      "ĠKon": 8232,
      "ĠKel": 8233,
      "ellows": 8234,
      "Ġintent": 8235,
      "Ġdisorder": 8236,
      "Ġdisappe": 8237,
      "Ġteams": 8238,
      "Ġmetallic": 8239,
      "evertheless": 8240,
      "Ġflo": 8241,
      "ĠConference": 8242,
      "Ġcolspan": 8243,
      "ĠIndependence": 8244,
      "nFrench": 8245,
      "ĠAdm": 8246,
      "Ġorigins": 8247,
      "Ġretained": 8248,
      "Ġshel": 8249,
      "Ġhistorically": 8250,
      "ĠRussell": 8251,
      "Ġdrive": 8252,
      "1984": 8253,
      "1988": 8254,
      "Ġsimilarly": 8255,
      "Ġdemand": 8256,
      "Ġargue": 8257,
      "1950": 8258,
      "Ġ1909": 8259,
      "ployment": 8260,
      "ĠArchbishop": 8261,
      "Ġmemoir": 8262,
      "Ġkeyboard": 8263,
      "Ġcampaigns": 8264,
      "Ġanchors": 8265,
      "Ġmanufacturing": 8266,
      "Ġspectrum": 8267,
      "Ġimplementation": 8268,
      "Ġinscription": 8269,
      "Ġmigration": 8270,
      "Ġmelting": 8271,
      "nApollo": 8272,
      "ĠRadio": 8273,
      "Ġbeautiful": 8274,
      "ĠAdditionally": 8275,
      "ĠTaylor": 8276,
      "ĠDionys": 8277,
      "grad": 8278,
      "group": 8279,
      "hm": 8280,
      "ooth": 8281,
      "ride": 8282,
      "ye": 8283,
      "esian": 8284,
      "itals": 8285,
      "ĠArag": 8286,
      "Ġhabit": 8287,
      "una": 8288,
      "Ġnav": 8289,
      "ĠMeth": 8290,
      "Ġgrain": 8291,
      "ĠBor": 8292,
      "ĠTheatre": 8293,
      "Ġstages": 8294,
      "tered": 8295,
      "ĠEc": 8296,
      "ĠRenaissance": 8297,
      "ĠLow": 8298,
      "Ġoral": 8299,
      "Ġvision": 8300,
      "ĠWind": 8301,
      "abas": 8302,
      "Ġrice": 8303,
      "ewish": 8304,
      "ĠKabul": 8305,
      "aceous": 8306,
      "Ġmanual": 8307,
      "Ġresidents": 8308,
      "Ġcenters": 8309,
      "Ġdefine": 8310,
      "ĠAustin": 8311,
      "Ġsupposed": 8312,
      "Ġsignificance": 8313,
      "Ġwarm": 8314,
      "ĠOrwell": 8315,
      "Ġminerals": 8316,
      "Ġlegit": 8317,
      "Ġmarks": 8318,
      "ĠWhat": 8319,
      "1998": 8320,
      "ĠAlbertosaurus": 8321,
      "Ġskills": 8322,
      "rayer": 8323,
      "Ġglac": 8324,
      "ĠPlan": 8325,
      "ĠPlato": 8326,
      "2003": 8327,
      "Ġoccurring": 8328,
      "Ġfinished": 8329,
      "Ġobservances": 8330,
      "Ġerror": 8331,
      "Ġ1903": 8332,
      "Ġseparation": 8333,
      "Ġadminister": 8334,
      "Ġjustice": 8335,
      "Ġiniti": 8336,
      "ĠHarry": 8337,
      "Ġethn": 8338,
      "Ġsixth": 8339,
      "Ġscripts": 8340,
      "ĠArtemis": 8341,
      "Ġjudge": 8342,
      "ĠâĢľ": 8343,
      "ynamics": 8344,
      "Ġfluor": 8345,
      "Ġpiece": 8346,
      "Ġambiguity": 8347,
      "ĠPhilosophy": 8348,
      "Ġexpedition": 8349,
      "Ġappellate": 8350,
      "ĠAnguilla": 8351,
      "69": 8352,
      "Af": 8353,
      "GOL": 8354,
      "Kar": 8355,
      "OH": 8356,
      "aug": 8357,
      "cell": 8358,
      "ding": 8359,
      "ections": 8360,
      "founded": 8361,
      "hard": 8362,
      "modern": 8363,
      "maker": 8364,
      "sing": 8365,
      "tra": 8366,
      "uum": 8367,
      "uay": 8368,
      "anadian": 8369,
      "alse": 8370,
      "iti": 8371,
      "ito": 8372,
      "Ġwine": 8373,
      "Ġintern": 8374,
      "Ġbed": 8375,
      "roke": 8376,
      "lets": 8377,
      "Ġtool": 8378,
      "Ġthing": 8379,
      "sted": 8380,
      "uties": 8381,
      "etary": 8382,
      "idas": 8383,
      "\\\";": 8384,
      "ĠBat": 8385,
      "ĠHasan": 8386,
      "aya": 8387,
      "ĠEucl": 8388,
      "opot": 8389,
      "ĠLike": 8390,
      "ĠDue": 8391,
      "Ġdeity": 8392,
      "Ġdeleg": 8393,
      "Ġheard": 8394,
      "1914": 8395,
      "Ġunlike": 8396,
      "ipel": 8397,
      "aked": 8398,
      "ustrial": 8399,
      "Ġformat": 8400,
      "Ġcommittee": 8401,
      "Ġ37": 8402,
      "Ġprey": 8403,
      "nSever": 8404,
      "Ġautistic": 8405,
      "Ġemot": 8406,
      "Ġ45": 8407,
      "inson": 8408,
      "icians": 8409,
      "Ġthemes": 8410,
      "Ġserving": 8411,
      "Ġadding": 8412,
      "nLeg": 8413,
      "Ġdesignated": 8414,
      "Ġengines": 8415,
      "Ġparad": 8416,
      "1983": 8417,
      "1987": 8418,
      "1973": 8419,
      "1974": 8420,
      "1994": 8421,
      "1995": 8422,
      "ethyst": 8423,
      "Ġaffect": 8424,
      "1944": 8425,
      "Ġlasted": 8426,
      "Ġstronger": 8427,
      "Ġ1902": 8428,
      "Ġdeclined": 8429,
      "ĠBefore": 8430,
      "Ġrecognize": 8431,
      "Ġfunctional": 8432,
      "Ġliturg": 8433,
      "Ġtests": 8434,
      "ĠPeriod": 8435,
      "ĠÃī": 8436,
      "Ġtourist": 8437,
      "Ġconcerns": 8438,
      "years": 8439,
      "Ġnuclei": 8440,
      "Ġclearly": 8441,
      "ĠRegion": 8442,
      "Ġproteins": 8443,
      "Ġaudio": 8444,
      "Ġantimatter": 8445,
      "ĠBabyl": 8446,
      "Ġfriendship": 8447,
      "Ġvarying": 8448,
      "Ġensure": 8449,
      "Ġbriefly": 8450,
      "Ġprayer": 8451,
      "communic": 8452,
      "Ġcovers": 8453,
      "ĠEconomic": 8454,
      "Ġclean": 8455,
      "ĠPasha": 8456,
      "Ġvessel": 8457,
      "Ġepisode": 8458,
      "ĠFlorida": 8459,
      "ĠBelgium": 8460,
      "ĠGregory": 8461,
      "ĠIsaac": 8462,
      "nSeveral": 8463,
      "=\\\"": 8464,
      "Jap": 8465,
      "do": 8466,
      "sk": 8467,
      "uj": 8468,
      "|\\": 8469,
      "Ã±": 8470,
      "Å¡": 8471,
      "Ġ),": 8472,
      "itter": 8473,
      "arl": 8474,
      "Ġinher": 8475,
      "Ġmentions": 8476,
      "lete": 8477,
      "amine": 8478,
      "iments": 8479,
      "ĠMike": 8480,
      "Ġgall": 8481,
      "ĠBang": 8482,
      "ĠPict": 8483,
      "ĠPrem": 8484,
      "Ġwaste": 8485,
      "Ġstead": 8486,
      "Ġconsec": 8487,
      "ĠGener": 8488,
      "ĠDom": 8489,
      "ĠOri": 8490,
      "ĠKor": 8491,
      "Ġnotation": 8492,
      "Ġplus": 8493,
      "ĠChief": 8494,
      "Ġyellow": 8495,
      "ĠThough": 8496,
      "Ġsymp": 8497,
      "Ġafterlife": 8498,
      "Ġregist": 8499,
      "Ġdoing": 8500,
      "ohn": 8501,
      "Ġvariant": 8502,
      "nBibliography": 8503,
      "inner": 8504,
      "Ġ150": 8505,
      "Ġsolve": 8506,
      "Ġcorpus": 8507,
      "Ġlegs": 8508,
      "ependent": 8509,
      "1966": 8510,
      "Ġaffairs": 8511,
      "Ġheadquarters": 8512,
      "Ġobservation": 8513,
      "Ġsynd": 8514,
      "Ġoxide": 8515,
      "who": 8516,
      "Ġprofessor": 8517,
      "Ġgrounds": 8518,
      "Ġinjury": 8519,
      "Ġvillages": 8520,
      "Ġestablishment": 8521,
      "Ġcustom": 8522,
      "Ġpreserved": 8523,
      "ĠLucius": 8524,
      "Ġapparently": 8525,
      "ĠBenjamin": 8526,
      "Ġalleged": 8527,
      "Ġdrugs": 8528,
      "Ġrecommended": 8529,
      "Ġcontroversial": 8530,
      "ĠDurrani": 8531,
      "Ġfertil": 8532,
      "ĠAkkadian": 8533,
      "Ġactinium": 8534,
      "Ġgalax": 8535,
      "Ġconscious": 8536,
      "ĠDouglas": 8537,
      "Karabakh": 8538,
      "87": 8539,
      "?\\": 8540,
      "De": 8541,
      "IV": 8542,
      "Ind": 8543,
      "SE": 8544,
      "div": 8545,
      "fact": 8546,
      "gers": 8547,
      "gard": 8548,
      "iro": 8549,
      "ÅŁ": 8550,
      "Ġere": 8551,
      "Ġtheological": 8552,
      "anthrop": 8553,
      "Ġsaint": 8554,
      "Ġcod": 8555,
      "Ġcook": 8556,
      "arus": 8557,
      "Ġinherent": 8558,
      "Ġlob": 8559,
      "ĠSamp": 8560,
      "ĠMobile": 8561,
      "ĠBened": 8562,
      "ĠHector": 8563,
      "Ġstability": 8564,
      "ĠEducation": 8565,
      "ĠLittle": 8566,
      "ĠFinn": 8567,
      "ava": 8568,
      "ĠWomen": 8569,
      "Ġsuitable": 8570,
      "Ġexports": 8571,
      "Ġheir": 8572,
      "Ġran": 8573,
      "Ġseats": 8574,
      "rane": 8575,
      "Ġspin": 8576,
      "issions": 8577,
      "Ġacceler": 8578,
      "Ġspecimen": 8579,
      "Ġinteraction": 8580,
      "Ġtransform": 8581,
      "Ġgenera": 8582,
      "ropy": 8583,
      "ĠShort": 8584,
      "ĠAnderson": 8585,
      "Ġdetective": 8586,
      "Ġlegacy": 8587,
      "Ġpublicly": 8588,
      "1996": 8589,
      "1969": 8590,
      "Ġmarkets": 8591,
      "Ġgoes": 8592,
      "Ġdelay": 8593,
      "Ġdefinitions": 8594,
      "Ġprofession": 8595,
      "Ġcollapse": 8596,
      "Ġmechanism": 8597,
      "Ġnecessarily": 8598,
      "ĠâĢĺ": 8599,
      "ĠMilan": 8600,
      "ĠJulian": 8601,
      "ogenic": 8602,
      "Ġdiscussion": 8603,
      "Ġconsumption": 8604,
      "Ġelectricity": 8605,
      "Ġlinked": 8606,
      "Ġefficient": 8607,
      "ĠTheodosius": 8608,
      "Ġencouraged": 8609,
      "Ġdiameter": 8610,
      "ĠNagorno": 8611,
      "Ġmanufacturer": 8612,
      "Ġfruit": 8613,
      "ĠSyria": 8614,
      "Ġwrong": 8615,
      "Ġtournament": 8616,
      "Ġcomedian": 8617,
      "opotam": 8618,
      "GB": 8619,
      "GC": 8620,
      "OVA": 8621,
      "ipe": 8622,
      "nY": 8623,
      "ÉĻ": 8624,
      "onso": 8625,
      "iser": 8626,
      "Ġsel": 8627,
      "Ġcul": 8628,
      "ĠpH": 8629,
      "Ġpage": 8630,
      "Ġfresh": 8631,
      "Ġbright": 8632,
      "Ġborders": 8633,
      "Ġmir": 8634,
      "oli": 8635,
      "Ġ120": 8636,
      "Ġlosing": 8637,
      "ĠCard": 8638,
      "idus": 8639,
      "lyph": 8640,
      "ĠIb": 8641,
      "ĠIv": 8642,
      "ĠBrad": 8643,
      "ĠRen": 8644,
      "ĠLie": 8645,
      "ĠDor": 8646,
      "aga": 8647,
      "ĠFree": 8648,
      "1920": 8649,
      "Ġseat": 8650,
      "ĠOb": 8651,
      "ework": 8652,
      "ĠKÃ¶": 8653,
      "ello": 8654,
      "clamation": 8655,
      "nTreat": 8656,
      "ĠVi": 8657,
      "Ġresid": 8658,
      "Ġpartner": 8659,
      "enses": 8660,
      "Ġteacher": 8661,
      "Ġ36": 8662,
      "Ġrecru": 8663,
      "Ġrays": 8664,
      "cession": 8665,
      "Ġestimate": 8666,
      "ĠMarx": 8667,
      "Ġdetect": 8668,
      "Ġequations": 8669,
      "gency": 8670,
      "Ġreferring": 8671,
      "Ġopera": 8672,
      "ĠWhit": 8673,
      "Ġfactory": 8674,
      "Ġreadily": 8675,
      "ĠNorthwest": 8676,
      "Ġannoun": 8677,
      "1968": 8678,
      "ipping": 8679,
      "Ġvolunte": 8680,
      "Ġmasses": 8681,
      "Ġbioc": 8682,
      "ĠExamples": 8683,
      "Ġ1880": 8684,
      "Ġinterested": 8685,
      "ĠGuard": 8686,
      "Ġheaven": 8687,
      "Ġpersu": 8688,
      "Ġemployment": 8689,
      "ĠCorpor": 8690,
      "ĠAlcuin": 8691,
      "Ġgolden": 8692,
      "Ġpercentage": 8693,
      "aximander": 8694,
      "Ġoptim": 8695,
      "Ġinjuries": 8696,
      "Ġweapon": 8697,
      "Ġmunicipality": 8698,
      "ĠDefense": 8699,
      "Ġevolutionary": 8700,
      "Ġtheorem": 8701,
      "ĠAstron": 8702,
      "Ġnervous": 8703,
      "Ġpurchased": 8704,
      "Ġbalance": 8705,
      "Ġtissue": 8706,
      "ocrypha": 8707,
      "Ġdismiss": 8708,
      "Ġbudget": 8709,
      "Ġvariables": 8710,
      "97": 8711,
      "DI": 8712,
      "bour": 8713,
      "elect": 8714,
      "graph": 8715,
      "hand": 8716,
      "oil": 8717,
      "rator": 8718,
      "Ġtells": 8719,
      "Ġaw": 8720,
      "Ġsight": 8721,
      "Ġsleep": 8722,
      "Ġfishing": 8723,
      "Ġbes": 8724,
      "Ġlose": 8725,
      "Ġthin": 8726,
      "Ġthor": 8727,
      "ĠCu": 8728,
      "ĠCulture": 8729,
      "amil": 8730,
      "ĠMission": 8731,
      "ĠGil": 8732,
      "2014": 8733,
      "ĠLamb": 8734,
      "ĠFord": 8735,
      "ĠField": 8736,
      "ĠWes": 8737,
      "ĠNar": 8738,
      "acre": 8739,
      "acle": 8740,
      "Ġhem": 8741,
      "ogether": 8742,
      "Ġranks": 8743,
      "ĠKant": 8744,
      "erevan": 8745,
      "phy": 8746,
      "rency": 8747,
      "Ġperf": 8748,
      "Ġphosph": 8749,
      "nSources": 8750,
      "ĠAmp": 8751,
      "Ġgenerated": 8752,
      "Ġinvited": 8753,
      "Ġsurgery": 8754,
      "Ġdistributed": 8755,
      "Ġexposed": 8756,
      "ypes": 8757,
      "Ġdecisions": 8758,
      "Ġconstell": 8759,
      "Ġdepends": 8760,
      "Ġsocieties": 8761,
      "ĠOntar": 8762,
      "Ġcommunion": 8763,
      "Ġtemples": 8764,
      "Ġradius": 8765,
      "Ġsky": 8766,
      "1967": 8767,
      "Ġshortly": 8768,
      "script": 8769,
      "Ġpromoted": 8770,
      "1940": 8771,
      "araoh": 8772,
      "ĠAnglicans": 8773,
      "Ġtourists": 8774,
      "ĠContinental": 8775,
      "Ġassistant": 8776,
      "Ġresponsibility": 8777,
      "Ġalchemical": 8778,
      "ĠDelph": 8779,
      "ĠRevolutionary": 8780,
      "Ġimplemented": 8781,
      "Ġexhibition": 8782,
      "Ġdisplayed": 8783,
      "Ġsafe": 8784,
      "ĠYears": 8785,
      "Ġconservative": 8786,
      "Ġarchaeological": 8787,
      "Ġsecure": 8788,
      "Ġexclusively": 8789,
      "ĠPeninsula": 8790,
      "Ġexplanation": 8791,
      "hemistry": 8792,
      "ĠPerseus": 8793,
      "ĠCaucasus": 8794,
      "ĠOntario": 8795,
      "):\\": 8796,
      "82": 8797,
      "And": 8798,
      "New": 8799,
      "bro": 8800,
      "lived": 8801,
      "mes": 8802,
      "nes": 8803,
      "rating": 8804,
      "sum": 8805,
      "uous": 8806,
      "zo": 8807,
      "Ġid": 8808,
      "incess": 8809,
      "orum": 8810,
      "itual": 8811,
      "Ġped": 8812,
      "Ġpul": 8813,
      "Ġfictional": 8814,
      "elin": 8815,
      "ĠCy": 8816,
      "ĠBad": 8817,
      "ĠPower": 8818,
      "Ġstood": 8819,
      "Ġstating": 8820,
      "ophers": 8821,
      "ĠRights": 8822,
      "ĠLet": 8823,
      "Ġdeities": 8824,
      "acles": 8825,
      "Ġsegment": 8826,
      "ewise": 8827,
      "ĠKir": 8828,
      "ĠAlpine": 8829,
      "nTrans": 8830,
      "ĠChildren": 8831,
      "Ġintention": 8832,
      "Ġpartn": 8833,
      "Ġpartially": 8834,
      "Ġdisability": 8835,
      "Ġcommit": 8836,
      "Ġroll": 8837,
      "Ġroutes": 8838,
      "ĠHein": 8839,
      "Ġspeaking": 8840,
      "osexual": 8841,
      "Ġactors": 8842,
      "Ġemission": 8843,
      "ĠSeven": 8844,
      "aean": 8845,
      "ĠConvention": 8846,
      "Ġcolors": 8847,
      "ĠArmed": 8848,
      "Ġsupplement": 8849,
      "Ġretreat": 8850,
      "lication": 8851,
      "ĠAndrÃ©": 8852,
      "nLanguages": 8853,
      "oxide": 8854,
      "Ġdesigns": 8855,
      "Ġbroken": 8856,
      "Ġmedic": 8857,
      "ĠPrincip": 8858,
      "Ġbegun": 8859,
      "Ġlimits": 8860,
      "Ġidentical": 8861,
      "Ġindependently": 8862,
      "Ġmotiv": 8863,
      "rainian": 8864,
      "ĠConfederation": 8865,
      "ĠReview": 8866,
      "Ġcivilization": 8867,
      "ĠBaron": 8868,
      "Ġlayer": 8869,
      "Ġalphabets": 8870,
      "Ġsurvive": 8871,
      "Ġexecutive": 8872,
      "Ġeasy": 8873,
      "udaism": 8874,
      "Ġlegislation": 8875,
      "Ġdocumentary": 8876,
      "ĠDefence": 8877,
      "ĠJacob": 8878,
      "ĠMacedonian": 8879,
      "Ġfrogs": 8880,
      "Ġgeometry": 8881,
      "ĠAldrin": 8882,
      "Ġsalamanders": 8883,
      "Ġarrangement": 8884,
      "Ġadiabatic": 8885,
      "AA": 8886,
      "Ac": 8887,
      "WK": 8888,
      "aic": 8889,
      "eu": 8890,
      "east": 8891,
      "named": 8892,
      "oured": 8893,
      "wig": 8894,
      "world": 8895,
      "zi": 8896,
      "zed": 8897,
      "ĠÅ": 8898,
      "Ġille": 8899,
      "Ġtends": 8900,
      "Ġtasks": 8901,
      "ancing": 8902,
      "alin": 8903,
      "Ġwitness": 8904,
      "Ġfirm": 8905,
      "Ġban": 8906,
      "Ġmamm": 8907,
      "Ġdrag": 8908,
      "ompl": 8909,
      "iler": 8910,
      "ilic": 8911,
      "illy": 8912,
      "ĠSand": 8913,
      "ĠSoul": 8914,
      "stable": 8915,
      "ĠCall": 8916,
      "igan": 8917,
      "igious": 8918,
      "Ġ1907": 8919,
      "ĠGab": 8920,
      "ĠWis": 8921,
      "ĠNative": 8922,
      "ocene": 8923,
      "usted": 8924,
      "Ġplanning": 8925,
      "pert": 8926,
      "oven": 8927,
      "ĠStation": 8928,
      "ĠUnlike": 8929,
      "nIf": 8930,
      "Ġammonium": 8931,
      "ricts": 8932,
      "Ġperception": 8933,
      "awn": 8934,
      "Ġprefer": 8935,
      "Ġknew": 8936,
      "Ġmeteor": 8937,
      "Ġcoined": 8938,
      "Ġqueen": 8939,
      "nCont": 8940,
      "Ġ44": 8941,
      "Ġweather": 8942,
      "Ġfled": 8943,
      "nPop": 8944,
      "ĠDev": 8945,
      "Ġsupplies": 8946,
      "ĠAbout": 8947,
      "nFollowing": 8948,
      "Ã©s": 8949,
      "Ġdiscip": 8950,
      "Ġstring": 8951,
      "Ġanniversary": 8952,
      "scale": 8953,
      "Ġarguments": 8954,
      "Ġhydrocarb": 8955,
      "1956": 8956,
      "Ġrulers": 8957,
      "Ġdifficulties": 8958,
      "Ġinvestment": 8959,
      "helm": 8960,
      "Ġcitizen": 8961,
      "ĠMaryland": 8962,
      "ĠTransl": 8963,
      "Ġprotein": 8964,
      "aughters": 8965,
      "ulsion": 8966,
      "Ġreforms": 8967,
      "Ġranges": 8968,
      "Ġdependent": 8969,
      "Ġprocedures": 8970,
      "nClass": 8971,
      "point": 8972,
      "ubleday": 8973,
      "Ġcamera": 8974,
      "Ġchronic": 8975,
      "Ġopportunity": 8976,
      "ĠAsparagales": 8977,
      "ĠOscar": 8978,
      "Ġvelocity": 8979,
      "ĠPremier": 8980,
      "eenth": 8981,
      "iÄ": 8982,
      "lu": 8983,
      "rh": 8984,
      "rug": 8985,
      "tr": 8986,
      "vark": 8987,
      "vaeus": 8988,
      "enburg": 8989,
      "orado": 8990,
      "Ġfib": 8991,
      "rous": 8992,
      "Ġmix": 8993,
      "lections": 8994,
      "Ġdub": 8995,
      "Ġdinosaur": 8996,
      "Ġhuge": 8997,
      "omed": 8998,
      "urre": 8999,
      "ĠSqu": 9000,
      "ĠMuch": 9001,
      "istent": 9002,
      "irl": 9003,
      "ĠPed": 9004,
      "ĠPap": 9005,
      "ĠPyth": 9006,
      "ĠEric": 9007,
      "2018": 9008,
      "ĠRet": 9009,
      "ĠRhod": 9010,
      "Ġvs": 9011,
      "ĠJord": 9012,
      "ĠInf": 9013,
      "Ġsections": 9014,
      "elli": 9015,
      "upiter": 9016,
      "Ġabstract": 9017,
      "ateral": 9018,
      "Ġclergy": 9019,
      "Ġenerg": 9020,
      "Ġneck": 9021,
      "Ġju": 9022,
      "Ġmeat": 9023,
      "Ġmeth": 9024,
      "Ġregime": 9025,
      "ĠSee": 9026,
      "ĠYerevan": 9027,
      "Ġintermediate": 9028,
      "Ġcolour": 9029,
      "Ġcolony": 9030,
      "Ġdirections": 9031,
      "Ġinstall": 9032,
      "ĠAdam": 9033,
      "Ġentertain": 9034,
      "icked": 9035,
      "ylvan": 9036,
      "Ġdepth": 9037,
      "olloqu": 9038,
      "Ġrefuge": 9039,
      "monton": 9040,
      "Ġdriven": 9041,
      "Ġcontinuing": 9042,
      "Ġperforming": 9043,
      "ĠCentury": 9044,
      "Ġfewer": 9045,
      "Ġaxis": 9046,
      "ĠElder": 9047,
      "1959": 9048,
      "Ġ1898": 9049,
      "Ġadmitted": 9050,
      "Ġconfig": 9051,
      "ĠMedicine": 9052,
      "Ġinfant": 9053,
      "Ġspecialized": 9054,
      "Ġquantity": 9055,
      "Ġpersec": 9056,
      "isemitism": 9057,
      "Ġfalls": 9058,
      "Ġfinding": 9059,
      "Ġfindings": 9060,
      "Ġlayers": 9061,
      "Ġoccupation": 9062,
      "Ġeasier": 9063,
      "ĠAhmad": 9064,
      "ĠGlobal": 9065,
      "Ġexhibit": 9066,
      "Ġchalleng": 9067,
      "Ġstreet": 9068,
      "Ġneuron": 9069,
      "Ġwithdraw": 9070,
      "ĠDivision": 9071,
      "ĠMemorial": 9072,
      "ĠMesopotam": 9073,
      "Ġenjoyed": 9074,
      "Ġnamely": 9075,
      "Ġextensively": 9076,
      "ĠHellenistic": 9077,
      "ĠDistrict": 9078,
      "roscopic": 9079,
      "ĠTerritory": 9080,
      "ĠAlemanni": 9081,
      "ĠAnthony": 9082,
      "ĠSimilarly": 9083,
      "onomous": 9084,
      "ĠAnalytical": 9085,
      "Ġunsuccess": 9086,
      "On": 9087,
      "Roman": 9088,
      "SR": 9089,
      "US": 9090,
      "ez": 9091,
      "free": 9092,
      "hum": 9093,
      "making": 9094,
      "oj": 9095,
      "worth": 9096,
      "ÃĹ": 9097,
      "Ġtrying": 9098,
      "Ġtherop": 9099,
      "Ġtheatre": 9100,
      "Ġsort": 9101,
      "esh": 9102,
      "Ġwider": 9103,
      "Ġbinary": 9104,
      "ingly": 9105,
      "leys": 9106,
      "Ġduties": 9107,
      "omon": 9108,
      "urance": 9109,
      "olve": 9110,
      "ĠTrad": 9111,
      "ĠCret": 9112,
      "ivest": 9113,
      "ĠMain": 9114,
      "ĠMaster": 9115,
      "ĠMerc": 9116,
      "ĠBa": 9117,
      "ĠBure": 9118,
      "ĠPrayer": 9119,
      "Ġstones": 9120,
      "Ġconference": 9121,
      "Ġprove": 9122,
      "ĠRon": 9123,
      "ĠLoyal": 9124,
      "ĠDictionary": 9125,
      "ĠFred": 9126,
      "ĠNon": 9127,
      "ĠJupiter": 9128,
      "anta": 9129,
      "ĠAlb": 9130,
      "ĠAlph": 9131,
      "ĠAltaic": 9132,
      "ĠAries": 9133,
      "ĠArsen": 9134,
      "ĠVenez": 9135,
      "plane": 9136,
      "Ġalliance": 9137,
      "ĠThose": 9138,
      "Ġspaces": 9139,
      "Ġprince": 9140,
      "Ġaccompl": 9141,
      "nComp": 9142,
      "oyd": 9143,
      "ĠIndex": 9144,
      "nNew": 9145,
      "eek": 9146,
      "1961": 9147,
      "Ġeverything": 9148,
      "Ġreceiving": 9149,
      "Ġmembership": 9150,
      "Ġfinds": 9151,
      "restrial": 9152,
      "Ġfacilit": 9153,
      "ĠParker": 9154,
      "Ġconcerning": 9155,
      "Ġradioactive": 9156,
      "ĠFlight": 9157,
      "Ġquestions": 9158,
      "nUnited": 9159,
      "Ġsouls": 9160,
      "ĠBrook": 9161,
      "imensional": 9162,
      "ĠMoreover": 9163,
      "Ġalcohols": 9164,
      "ĠArgentine": 9165,
      "Ġtheoretical": 9166,
      "ĠAriet": 9167,
      "ĠUlvaeus": 9168,
      "Ġphenomenon": 9169,
      "Ġfleet": 9170,
      "Ġmacro": 9171,
      "Ġpolynomial": 9172,
      "ĠAmpÃ¨re": 9173,
      "ylvania": 9174,
      "PS": 9175,
      "aemen": 9176,
      "cium": 9177,
      "gent": 9178,
      "key": 9179,
      "whe": 9180,
      "Ġtens": 9181,
      "Ġcorn": 9182,
      "Ġfalse": 9183,
      "Ġbronze": 9184,
      "lema": 9185,
      "Ġdies": 9186,
      "Ġdiet": 9187,
      "Ġdiac": 9188,
      "Ġhorn": 9189,
      "ilton": 9190,
      "olith": 9191,
      "Ġnoun": 9192,
      "idel": 9193,
      "Ġgif": 9194,
      "ĠBon": 9195,
      "ĠBapt": 9196,
      "ĠBrig": 9197,
      "ĠHoll": 9198,
      "ĠHind": 9199,
      "Ġstream": 9200,
      "Ġstorage": 9201,
      "Ġconven": 9202,
      "ĠEst": 9203,
      "ĠRoss": 9204,
      "ĠLast": 9205,
      "avid": 9206,
      "Ġvoted": 9207,
      "romagn": 9208,
      "ĠWolf": 9209,
      "ĠNevertheless": 9210,
      "Ġexclud": 9211,
      "ortion": 9212,
      "1958": 9213,
      "Ġunf": 9214,
      "Ġplain": 9215,
      "Ġadobe": 9216,
      "owned": 9217,
      "Ġagents": 9218,
      "nSe": 9219,
      "Ġmetab": 9220,
      "Ġherself": 9221,
      "Ġinteractions": 9222,
      "Ġ41": 9223,
      "Ġ55": 9224,
      "ĠSpring": 9225,
      "Ġtraged": 9226,
      "Ġtermed": 9227,
      "Ã©n": 9228,
      "ylogen": 9229,
      "anna": 9230,
      "ĠClark": 9231,
      "Ġexplor": 9232,
[...]
